/**
  ******************************************************************************
  * @file    network_data.c
  * @author  AST Embedded Analytics Research Platform
  * @date    2026-01-09T17:04:55+0100
  * @brief   AI Tool Automatic Code Generator for Embedded NN computing
  ******************************************************************************
  * Copyright (c) 2026 STMicroelectronics.
  * All rights reserved.
  *
  * This software is licensed under terms that can be found in the LICENSE file
  * in the root directory of this software component.
  * If no LICENSE file comes with this software, it is provided AS-IS.
  ******************************************************************************
  */

#include "network_data.h"
STAI_ALIGNED(8)
const uint64_t g_network_weights_array[61845] = {
  0xbddb1326bddb1326U, 0x3e1c7b643e1c7b64U, 0xbd8cd574be244e5dU, 0x3deab9173e53402eU,
  0xbe244e5dbd8cd574U, 0x3e53402e3deab917U, 0xbe53402ebd5b1326U, 0x3e7a5f073dcb6d36U,
  0xbe14a86cbe14a86cU, 0x3e3bc7453e3bc745U, 0xbddb1326bd8cd574U, 0x3e1c7b643e439a3dU,
  0xbd8cd574bdfa5f07U, 0x3deab9173e7a5f07U, 0xbe244e5dbcfa5f07U, 0x3e53402e3e1c7b64U,
  0xbe53402ebc7a5f07U, 0x3e7a5f073e0cd574U, 0xbe14a86cbdcb6d36U, 0x3e3bc7453e6ab917U,
  0xbddb1326bcbbc745U, 0x3e1c7b643e728c0fU, 0xbd8cd574bd9c7b64U, 0x3deab9173e94a86cU,
  0xbe244e5d3c7a5f07U, 0x3e53402e3e4b6d36U, 0xbe53402e3cfa5f07U, 0x3e7a5f073e33f44dU,
  0xbe14a86cbd7a5f07U, 0x3e3bc7453e88ebf8U, 0xbddb13263c7a5f07U, 0x3e1c7b643e8cd574U,
  0xbd8cd574bd1c7b64U, 0x3deab9173ea837d9U, 0xbe244e5d3d5b1326U, 0x3e53402e3e728c0fU,
  0xbe53402e3d8cd574U, 0x3e7a5f073e62e61eU, 0xbe14a86cbcbbc745U, 0x3e3bc7453ea064e0U,
  0xbddb13263d7a5f07U, 0x3e1c7b643ea44e5dU, 0xbd8cd57400000000U, 0x3deab9173ebfb0c1U,
  0xbe244e5d3dcb6d36U, 0x3e53402e3e90bef0U, 0xbe53402e3deab917U, 0x3e7a5f073e85027cU,
  0xbe14a86c3cbbc745U, 0x3e3bc7453eb3f44dU, 0xbddb13263dcb6d36U, 0x3e1c7b643eb7ddc9U,
  0xbd8cd5743d3bc745U, 0x3deab9173ed3402eU, 0xbe244e5d3e0cd574U, 0x3e53402e3ea44e5dU,
  0xbe53402e3e1c7b64U, 0x3e7a5f073e9c7b64U, 0xbe14a86c3d7a5f07U, 0x3e3bc7453ecb6d36U,
  0xbddb13263e0cd574U, 0x3e1c7b643ecb6d36U, 0xbd8cd5743dac2155U, 0x3deab9173eeab917U,
  0xbe244e5d3e33f44dU, 0x3e53402e3eb7ddc9U, 0xbe53402e3e4b6d36U, 0x3e7a5f073eb00ad1U,
  0xbe14a86c3ddb1326U, 0x3e3bc7453edefca2U, 0xbddb13263e3bc745U, 0x3e1c7b643ee2e61eU,
  0xbd8cd5743e05027cU, 0x3deab9173efe4883U, 0xbe244e5d3e62e61eU, 0x3e53402e3ecf56b2U,
  0xbe53402e3e728c0fU, 0x3e7a5f073ec783baU, 0xbe14a86c3e14a86cU, 0x3e3bc7453ef28c0fU,
  0xbddb13263e62e61eU, 0x3e1c7b643ef6758bU, 0xbd8cd5743e2c2155U, 0x3deab9173f08ebf8U,
  0xbe244e5d3e85027cU, 0x3e53402e3ee2e61eU, 0xbe53402e3e90bef0U, 0x3e7a5f073edb1326U,
  0xbe14a86c3e439a3dU, 0x3e3bc7453f05027cU, 0xbddb13263e88ebf8U, 0x3e1c7b643f06f73aU,
  0xbd8cd5743e5b1326U, 0x3deab9173f14a86cU, 0xbe244e5d3e9c7b64U, 0x3e53402e3efa5f07U,
  0xbe53402e3ea44e5dU, 0x3e7a5f073ef28c0fU, 0xbe14a86c3e6ab917U, 0x3e3bc7453f0eca32U,
  0xbddb13263e9c7b64U, 0x3e1c7b643f10bef0U, 0xbd8cd5743e811900U, 0x3deab9173f1e7022U,
  0xbe244e5d3eb00ad1U, 0x3e53402e3f06f73aU, 0xbe53402e3eb7ddc9U, 0x3e7a5f073f030dbeU,
  0xbe14a86c3e8cd574U, 0x3e3bc7453f1a86a6U, 0xbddb13263eb3f44dU, 0x3e1c7b643f1c7b64U,
  0xbd8cd5743e9891e8U, 0x3deab9173f2a2c97U, 0xbe244e5d3ec783baU, 0x3e53402e3f12b3aeU,
  0xbe53402e3ecf56b2U, 0x3e7a5f073f0eca32U, 0xbe14a86c3ea064e0U, 0x3e3bc7453f244e5dU,
  0xbddb13263ec783baU, 0x3e1c7b643f26431bU, 0xbd8cd5743eac2155U, 0x3deab9173f33f44dU,
  0xbe244e5d3edb1326U, 0x3e53402e3f1c7b64U, 0xbe53402e3ee2e61eU, 0x3e7a5f073f1891e8U,
  0xbe14a86c3eb7ddc9U, 0x3e3bc7453f300ad1U, 0xbddb13263edefca2U, 0x3e1c7b643f31ff8fU,
  0xbd8cd5743ec39a3dU, 0x3deab9173f3fb0c1U, 0xbe244e5d3ef28c0fU, 0x3e53402e3f2837d9U,
  0xbe53402e3efa5f07U, 0x3e7a5f073f22599fU, 0xbe14a86c3ecb6d36U, 0x3e3bc7453f39d287U,
  0xbddb13263ef28c0fU, 0x3e1c7b643f3bc745U, 0xbd8cd5743ed729aaU, 0x3deab9173f497878U,
  0xbe244e5d3f030dbeU, 0x3e53402e3f31ff8fU, 0xbe53402e3f06f73aU, 0x3e7a5f073f2e1613U,
  0xbe14a86c3edefca2U, 0x3e3bc7453f458efcU, 0xbddb13263f05027cU, 0x3e1c7b643f4783baU,
  0xbd8cd5743eeab917U, 0x3deab9173f5534ecU, 0xbe244e5d3f0cd574U, 0x3e53402e3f3dbc03U,
  0xbe53402e3f12b3aeU, 0x3e7a5f073f37ddc9U, 0xbe14a86c3ef6758bU, 0x3e3bc7453f4f56b2U,
  0xbddb13263f0eca32U, 0x3e1c7b643f514b70U, 0xbd8cd5743f011900U, 0x3deab9173f5efca2U,
  0xbe244e5d3f1891e8U, 0x3e53402e3f4783baU, 0xbe53402e3f1c7b64U, 0x3e7a5f073f439a3dU,
  0xbe14a86c3f05027cU, 0x3e3bc7453f5b1326U, 0xbddb13263f1891e8U, 0x3e1c7b643f5b1326U,
  0xbd8cd5743f0ae0b6U, 0x3deab9173f68c459U, 0xbe244e5d3f22599fU, 0x3e53402e3f514b70U,
  0xbe53402e3f2837d9U, 0x3e7a5f073f4d61f4U, 0xbe14a86c3f10bef0U, 0x3e3bc7453f64dadcU,
  0xbddb13263f244e5dU, 0x3e1c7b643f66cf9aU, 0xbd8cd5743f169d2aU, 0x3deab9173f7480cdU,
  0xbe244e5d3f2e1613U, 0x3e53402e3f5d07e4U, 0xbe53402e3f31ff8fU, 0x3e7a5f073f591e68U,
  0xbe14a86c3f1a86a6U, 0x3e3bc7453f6ea293U, 0xbddb13263f2e1613U, 0x3e1c7b643f709751U,
  0xbd8cd5743f2064e0U, 0x3deab9173f7e4883U, 0xbe244e5d3f37ddc9U, 0x3e53402e3f66cf9aU,
  0xbe53402e3f3dbc03U, 0x3e7a5f073f62e61eU, 0xbe14a86c3f26431bU, 0x3e3bc7453f7a5f07U,
  0xbddb13263f39d287U, 0x3e1c7b643f7c53c5U, 0xbd8cd5743f2c2155U, 0x3deab9173f85027cU,
  0xbe244e5d3f439a3dU, 0x3e53402e3f728c0fU, 0xbe53402e3f4783baU, 0x3e7a5f073f6ea293U,
  0xbe14a86c3f300ad1U, 0x3e3bc7453f82135fU, 0xbddb13263f439a3dU, 0x3e1c7b643f830dbeU,
  0xbd8cd5743f35e90bU, 0x3deab9173f89e657U, 0xbe244e5d3f4d61f4U, 0x3e53402e3f7c53c5U,
  0xbe53402e3f514b70U, 0x3e7a5f073f786a49U, 0xbe14a86c3f3bc745U, 0x3e3bc7453f87f199U,
  0xbddb13263f4f56b2U, 0x3e1c7b643f88ebf8U, 0xbd8cd5743f41a57fU, 0x3deab9173f8fc491U,
  0xbe244e5d3f591e68U, 0x3e53402e3f84081dU, 0xbe53402e3f5d07e4U, 0x3e7a5f073f82135fU,
  0xbe14a86c3f458efcU, 0x3e3bc7453f8cd574U, 0xbddb13263f591e68U, 0x3e1c7b643f8dcfd3U,
  0xbd8cd5743f4b6d36U, 0x3deab9173f94a86cU, 0xbe244e5d3f62e61eU, 0x3e53402e3f88ebf8U,
  0xbe53402e3f66cf9aU, 0x3e7a5f073f86f73aU, 0xbe14a86c3f514b70U, 0x3e3bc7453f92b3aeU,
  0xbd8cd574bddb1326U, 0x3e439a3d3e1c7b64U, 0xbcfa5f07be244e5dU, 0x3e1c7b643e53402eU,
  0xbdfa5f07bd8cd574U, 0x3e7a5f073deab917U, 0xbe244e5dbd5b1326U, 0x3e94a86c3dcb6d36U,
  0xbdcb6d36be14a86cU, 0x3e6ab9173e3bc745U, 0xbd8cd574bd8cd574U, 0x3e439a3d3e439a3dU,
  0xbcfa5f07bdfa5f07U, 0x3e1c7b643e7a5f07U, 0xbdfa5f07bcfa5f07U, 0x3e7a5f073e1c7b64U,
  0xbe244e5dbc7a5f07U, 0x3e94a86c3e0cd574U, 0xbdcb6d36bdcb6d36U, 0x3e6ab9173e6ab917U,
  0xbd8cd574bcbbc745U, 0x3e439a3d3e728c0fU, 0xbcfa5f07bd9c7b64U, 0x3e1c7b643e94a86cU,
  0xbdfa5f073c7a5f07U, 0x3e7a5f073e4b6d36U, 0xbe244e5d3cfa5f07U, 0x3e94a86c3e33f44dU,
  0xbdcb6d36bd7a5f07U, 0x3e6ab9173e88ebf8U, 0xbd8cd5743c7a5f07U, 0x3e439a3d3e8cd574U,
  0xbcfa5f07bd1c7b64U, 0x3e1c7b643ea837d9U, 0xbdfa5f073d5b1326U, 0x3e7a5f073e728c0fU,
  0xbe244e5d3d8cd574U, 0x3e94a86c3e62e61eU, 0xbdcb6d36bcbbc745U, 0x3e6ab9173ea064e0U,
  0xbd8cd5743d7a5f07U, 0x3e439a3d3ea44e5dU, 0xbcfa5f0700000000U, 0x3e1c7b643ebfb0c1U,
  0xbdfa5f073dcb6d36U, 0x3e7a5f073e90bef0U, 0xbe244e5d3deab917U, 0x3e94a86c3e85027cU,
  0xbdcb6d363cbbc745U, 0x3e6ab9173eb3f44dU, 0xbd8cd5743dcb6d36U, 0x3e439a3d3eb7ddc9U,
  0xbcfa5f073d3bc745U, 0x3e1c7b643ed3402eU, 0xbdfa5f073e0cd574U, 0x3e7a5f073ea44e5dU,
  0xbe244e5d3e1c7b64U, 0x3e94a86c3e9c7b64U, 0xbdcb6d363d7a5f07U, 0x3e6ab9173ecb6d36U,
  0xbd8cd5743e0cd574U, 0x3e439a3d3ecb6d36U, 0xbcfa5f073dac2155U, 0x3e1c7b643eeab917U,
  0xbdfa5f073e33f44dU, 0x3e7a5f073eb7ddc9U, 0xbe244e5d3e4b6d36U, 0x3e94a86c3eb00ad1U,
  0xbdcb6d363ddb1326U, 0x3e6ab9173edefca2U, 0xbd8cd5743e3bc745U, 0x3e439a3d3ee2e61eU,
  0xbcfa5f073e05027cU, 0x3e1c7b643efe4883U, 0xbdfa5f073e62e61eU, 0x3e7a5f073ecf56b2U,
  0xbe244e5d3e728c0fU, 0x3e94a86c3ec783baU, 0xbdcb6d363e14a86cU, 0x3e6ab9173ef28c0fU,
  0xbd8cd5743e62e61eU, 0x3e439a3d3ef6758bU, 0xbcfa5f073e2c2155U, 0x3e1c7b643f08ebf8U,
  0xbdfa5f073e85027cU, 0x3e7a5f073ee2e61eU, 0xbe244e5d3e90bef0U, 0x3e94a86c3edb1326U,
  0xbdcb6d363e439a3dU, 0x3e6ab9173f05027cU, 0xbd8cd5743e88ebf8U, 0x3e439a3d3f06f73aU,
  0xbcfa5f073e5b1326U, 0x3e1c7b643f14a86cU, 0xbdfa5f073e9c7b64U, 0x3e7a5f073efa5f07U,
  0xbe244e5d3ea44e5dU, 0x3e94a86c3ef28c0fU, 0xbdcb6d363e6ab917U, 0x3e6ab9173f0eca32U,
  0xbd8cd5743e9c7b64U, 0x3e439a3d3f10bef0U, 0xbcfa5f073e811900U, 0x3e1c7b643f1e7022U,
  0xbdfa5f073eb00ad1U, 0x3e7a5f073f06f73aU, 0xbe244e5d3eb7ddc9U, 0x3e94a86c3f030dbeU,
  0xbdcb6d363e8cd574U, 0x3e6ab9173f1a86a6U, 0xbd8cd5743eb3f44dU, 0x3e439a3d3f1c7b64U,
  0xbcfa5f073e9891e8U, 0x3e1c7b643f2a2c97U, 0xbdfa5f073ec783baU, 0x3e7a5f073f12b3aeU,
  0xbe244e5d3ecf56b2U, 0x3e94a86c3f0eca32U, 0xbdcb6d363ea064e0U, 0x3e6ab9173f244e5dU,
  0xbd8cd5743ec783baU, 0x3e439a3d3f26431bU, 0xbcfa5f073eac2155U, 0x3e1c7b643f33f44dU,
  0xbdfa5f073edb1326U, 0x3e7a5f073f1c7b64U, 0xbe244e5d3ee2e61eU, 0x3e94a86c3f1891e8U,
  0xbdcb6d363eb7ddc9U, 0x3e6ab9173f300ad1U, 0xbd8cd5743edefca2U, 0x3e439a3d3f31ff8fU,
  0xbcfa5f073ec39a3dU, 0x3e1c7b643f3fb0c1U, 0xbdfa5f073ef28c0fU, 0x3e7a5f073f2837d9U,
  0xbe244e5d3efa5f07U, 0x3e94a86c3f22599fU, 0xbdcb6d363ecb6d36U, 0x3e6ab9173f39d287U,
  0xbd8cd5743ef28c0fU, 0x3e439a3d3f3bc745U, 0xbcfa5f073ed729aaU, 0x3e1c7b643f497878U,
  0xbdfa5f073f030dbeU, 0x3e7a5f073f31ff8fU, 0xbe244e5d3f06f73aU, 0x3e94a86c3f2e1613U,
  0xbdcb6d363edefca2U, 0x3e6ab9173f458efcU, 0xbd8cd5743f05027cU, 0x3e439a3d3f4783baU,
  0xbcfa5f073eeab917U, 0x3e1c7b643f5534ecU, 0xbdfa5f073f0cd574U, 0x3e7a5f073f3dbc03U,
  0xbe244e5d3f12b3aeU, 0x3e94a86c3f37ddc9U, 0xbdcb6d363ef6758bU, 0x3e6ab9173f4f56b2U,
  0xbd8cd5743f0eca32U, 0x3e439a3d3f514b70U, 0xbcfa5f073f011900U, 0x3e1c7b643f5efca2U,
  0xbdfa5f073f1891e8U, 0x3e7a5f073f4783baU, 0xbe244e5d3f1c7b64U, 0x3e94a86c3f439a3dU,
  0xbdcb6d363f05027cU, 0x3e6ab9173f5b1326U, 0xbd8cd5743f1891e8U, 0x3e439a3d3f5b1326U,
  0xbcfa5f073f0ae0b6U, 0x3e1c7b643f68c459U, 0xbdfa5f073f22599fU, 0x3e7a5f073f514b70U,
  0xbe244e5d3f2837d9U, 0x3e94a86c3f4d61f4U, 0xbdcb6d363f10bef0U, 0x3e6ab9173f64dadcU,
  0xbd8cd5743f244e5dU, 0x3e439a3d3f66cf9aU, 0xbcfa5f073f169d2aU, 0x3e1c7b643f7480cdU,
  0xbdfa5f073f2e1613U, 0x3e7a5f073f5d07e4U, 0xbe244e5d3f31ff8fU, 0x3e94a86c3f591e68U,
  0xbdcb6d363f1a86a6U, 0x3e6ab9173f6ea293U, 0xbd8cd5743f2e1613U, 0x3e439a3d3f709751U,
  0xbcfa5f073f2064e0U, 0x3e1c7b643f7e4883U, 0xbdfa5f073f37ddc9U, 0x3e7a5f073f66cf9aU,
  0xbe244e5d3f3dbc03U, 0x3e94a86c3f62e61eU, 0xbdcb6d363f26431bU, 0x3e6ab9173f7a5f07U,
  0xbd8cd5743f39d287U, 0x3e439a3d3f7c53c5U, 0xbcfa5f073f2c2155U, 0x3e1c7b643f85027cU,
  0xbdfa5f073f439a3dU, 0x3e7a5f073f728c0fU, 0xbe244e5d3f4783baU, 0x3e94a86c3f6ea293U,
  0xbdcb6d363f300ad1U, 0x3e6ab9173f82135fU, 0xbd8cd5743f439a3dU, 0x3e439a3d3f830dbeU,
  0xbcfa5f073f35e90bU, 0x3e1c7b643f89e657U, 0xbdfa5f073f4d61f4U, 0x3e7a5f073f7c53c5U,
  0xbe244e5d3f514b70U, 0x3e94a86c3f786a49U, 0xbdcb6d363f3bc745U, 0x3e6ab9173f87f199U,
  0xbd8cd5743f4f56b2U, 0x3e439a3d3f88ebf8U, 0xbcfa5f073f41a57fU, 0x3e1c7b643f8fc491U,
  0xbdfa5f073f591e68U, 0x3e7a5f073f84081dU, 0xbe244e5d3f5d07e4U, 0x3e94a86c3f82135fU,
  0xbdcb6d363f458efcU, 0x3e6ab9173f8cd574U, 0xbd8cd5743f591e68U, 0x3e439a3d3f8dcfd3U,
  0xbcfa5f073f4b6d36U, 0x3e1c7b643f94a86cU, 0xbdfa5f073f62e61eU, 0x3e7a5f073f88ebf8U,
  0xbe244e5d3f66cf9aU, 0x3e94a86c3f86f73aU, 0xbdcb6d363f514b70U, 0x3e6ab9173f92b3aeU,
  0xbcbbc745bddb1326U, 0x3e728c0f3e1c7b64U, 0x3c7a5f07be244e5dU, 0x3e4b6d363e53402eU,
  0xbd9c7b64bd8cd574U, 0x3e94a86c3deab917U, 0xbdfa5f07bd5b1326U, 0x3ea837d93dcb6d36U,
  0xbd7a5f07be14a86cU, 0x3e88ebf83e3bc745U, 0xbcbbc745bd8cd574U, 0x3e728c0f3e439a3dU,
  0x3c7a5f07bdfa5f07U, 0x3e4b6d363e7a5f07U, 0xbd9c7b64bcfa5f07U, 0x3e94a86c3e1c7b64U,
  0xbdfa5f07bc7a5f07U, 0x3ea837d93e0cd574U, 0xbd7a5f07bdcb6d36U, 0x3e88ebf83e6ab917U,
  0xbcbbc745bcbbc745U, 0x3e728c0f3e728c0fU, 0x3c7a5f07bd9c7b64U, 0x3e4b6d363e94a86cU,
  0xbd9c7b643c7a5f07U, 0x3e94a86c3e4b6d36U, 0xbdfa5f073cfa5f07U, 0x3ea837d93e33f44dU,
  0xbd7a5f07bd7a5f07U, 0x3e88ebf83e88ebf8U, 0xbcbbc7453c7a5f07U, 0x3e728c0f3e8cd574U,
  0x3c7a5f07bd1c7b64U, 0x3e4b6d363ea837d9U, 0xbd9c7b643d5b1326U, 0x3e94a86c3e728c0fU,
  0xbdfa5f073d8cd574U, 0x3ea837d93e62e61eU, 0xbd7a5f07bcbbc745U, 0x3e88ebf83ea064e0U,
  0xbcbbc7453d7a5f07U, 0x3e728c0f3ea44e5dU, 0x3c7a5f0700000000U, 0x3e4b6d363ebfb0c1U,
  0xbd9c7b643dcb6d36U, 0x3e94a86c3e90bef0U, 0xbdfa5f073deab917U, 0x3ea837d93e85027cU,
  0xbd7a5f073cbbc745U, 0x3e88ebf83eb3f44dU, 0xbcbbc7453dcb6d36U, 0x3e728c0f3eb7ddc9U,
  0x3c7a5f073d3bc745U, 0x3e4b6d363ed3402eU, 0xbd9c7b643e0cd574U, 0x3e94a86c3ea44e5dU,
  0xbdfa5f073e1c7b64U, 0x3ea837d93e9c7b64U, 0xbd7a5f073d7a5f07U, 0x3e88ebf83ecb6d36U,
  0xbcbbc7453e0cd574U, 0x3e728c0f3ecb6d36U, 0x3c7a5f073dac2155U, 0x3e4b6d363eeab917U,
  0xbd9c7b643e33f44dU, 0x3e94a86c3eb7ddc9U, 0xbdfa5f073e4b6d36U, 0x3ea837d93eb00ad1U,
  0xbd7a5f073ddb1326U, 0x3e88ebf83edefca2U, 0xbcbbc7453e3bc745U, 0x3e728c0f3ee2e61eU,
  0x3c7a5f073e05027cU, 0x3e4b6d363efe4883U, 0xbd9c7b643e62e61eU, 0x3e94a86c3ecf56b2U,
  0xbdfa5f073e728c0fU, 0x3ea837d93ec783baU, 0xbd7a5f073e14a86cU, 0x3e88ebf83ef28c0fU,
  0xbcbbc7453e62e61eU, 0x3e728c0f3ef6758bU, 0x3c7a5f073e2c2155U, 0x3e4b6d363f08ebf8U,
  0xbd9c7b643e85027cU, 0x3e94a86c3ee2e61eU, 0xbdfa5f073e90bef0U, 0x3ea837d93edb1326U,
  0xbd7a5f073e439a3dU, 0x3e88ebf83f05027cU, 0xbcbbc7453e88ebf8U, 0x3e728c0f3f06f73aU,
  0x3c7a5f073e5b1326U, 0x3e4b6d363f14a86cU, 0xbd9c7b643e9c7b64U, 0x3e94a86c3efa5f07U,
  0xbdfa5f073ea44e5dU, 0x3ea837d93ef28c0fU, 0xbd7a5f073e6ab917U, 0x3e88ebf83f0eca32U,
  0xbcbbc7453e9c7b64U, 0x3e728c0f3f10bef0U, 0x3c7a5f073e811900U, 0x3e4b6d363f1e7022U,
  0xbd9c7b643eb00ad1U, 0x3e94a86c3f06f73aU, 0xbdfa5f073eb7ddc9U, 0x3ea837d93f030dbeU,
  0xbd7a5f073e8cd574U, 0x3e88ebf83f1a86a6U, 0xbcbbc7453eb3f44dU, 0x3e728c0f3f1c7b64U,
  0x3c7a5f073e9891e8U, 0x3e4b6d363f2a2c97U, 0xbd9c7b643ec783baU, 0x3e94a86c3f12b3aeU,
  0xbdfa5f073ecf56b2U, 0x3ea837d93f0eca32U, 0xbd7a5f073ea064e0U, 0x3e88ebf83f244e5dU,
  0xbcbbc7453ec783baU, 0x3e728c0f3f26431bU, 0x3c7a5f073eac2155U, 0x3e4b6d363f33f44dU,
  0xbd9c7b643edb1326U, 0x3e94a86c3f1c7b64U, 0xbdfa5f073ee2e61eU, 0x3ea837d93f1891e8U,
  0xbd7a5f073eb7ddc9U, 0x3e88ebf83f300ad1U, 0xbcbbc7453edefca2U, 0x3e728c0f3f31ff8fU,
  0x3c7a5f073ec39a3dU, 0x3e4b6d363f3fb0c1U, 0xbd9c7b643ef28c0fU, 0x3e94a86c3f2837d9U,
  0xbdfa5f073efa5f07U, 0x3ea837d93f22599fU, 0xbd7a5f073ecb6d36U, 0x3e88ebf83f39d287U,
  0xbcbbc7453ef28c0fU, 0x3e728c0f3f3bc745U, 0x3c7a5f073ed729aaU, 0x3e4b6d363f497878U,
  0xbd9c7b643f030dbeU, 0x3e94a86c3f31ff8fU, 0xbdfa5f073f06f73aU, 0x3ea837d93f2e1613U,
  0xbd7a5f073edefca2U, 0x3e88ebf83f458efcU, 0xbcbbc7453f05027cU, 0x3e728c0f3f4783baU,
  0x3c7a5f073eeab917U, 0x3e4b6d363f5534ecU, 0xbd9c7b643f0cd574U, 0x3e94a86c3f3dbc03U,
  0xbdfa5f073f12b3aeU, 0x3ea837d93f37ddc9U, 0xbd7a5f073ef6758bU, 0x3e88ebf83f4f56b2U,
  0xbcbbc7453f0eca32U, 0x3e728c0f3f514b70U, 0x3c7a5f073f011900U, 0x3e4b6d363f5efca2U,
  0xbd9c7b643f1891e8U, 0x3e94a86c3f4783baU, 0xbdfa5f073f1c7b64U, 0x3ea837d93f439a3dU,
  0xbd7a5f073f05027cU, 0x3e88ebf83f5b1326U, 0xbcbbc7453f1891e8U, 0x3e728c0f3f5b1326U,
  0x3c7a5f073f0ae0b6U, 0x3e4b6d363f68c459U, 0xbd9c7b643f22599fU, 0x3e94a86c3f514b70U,
  0xbdfa5f073f2837d9U, 0x3ea837d93f4d61f4U, 0xbd7a5f073f10bef0U, 0x3e88ebf83f64dadcU,
  0xbcbbc7453f244e5dU, 0x3e728c0f3f66cf9aU, 0x3c7a5f073f169d2aU, 0x3e4b6d363f7480cdU,
  0xbd9c7b643f2e1613U, 0x3e94a86c3f5d07e4U, 0xbdfa5f073f31ff8fU, 0x3ea837d93f591e68U,
  0xbd7a5f073f1a86a6U, 0x3e88ebf83f6ea293U, 0xbcbbc7453f2e1613U, 0x3e728c0f3f709751U,
  0x3c7a5f073f2064e0U, 0x3e4b6d363f7e4883U, 0xbd9c7b643f37ddc9U, 0x3e94a86c3f66cf9aU,
  0xbdfa5f073f3dbc03U, 0x3ea837d93f62e61eU, 0xbd7a5f073f26431bU, 0x3e88ebf83f7a5f07U,
  0xbcbbc7453f39d287U, 0x3e728c0f3f7c53c5U, 0x3c7a5f073f2c2155U, 0x3e4b6d363f85027cU,
  0xbd9c7b643f439a3dU, 0x3e94a86c3f728c0fU, 0xbdfa5f073f4783baU, 0x3ea837d93f6ea293U,
  0xbd7a5f073f300ad1U, 0x3e88ebf83f82135fU, 0xbcbbc7453f439a3dU, 0x3e728c0f3f830dbeU,
  0x3c7a5f073f35e90bU, 0x3e4b6d363f89e657U, 0xbd9c7b643f4d61f4U, 0x3e94a86c3f7c53c5U,
  0xbdfa5f073f514b70U, 0x3ea837d93f786a49U, 0xbd7a5f073f3bc745U, 0x3e88ebf83f87f199U,
  0xbcbbc7453f4f56b2U, 0x3e728c0f3f88ebf8U, 0x3c7a5f073f41a57fU, 0x3e4b6d363f8fc491U,
  0xbd9c7b643f591e68U, 0x3e94a86c3f84081dU, 0xbdfa5f073f5d07e4U, 0x3ea837d93f82135fU,
  0xbd7a5f073f458efcU, 0x3e88ebf83f8cd574U, 0xbcbbc7453f591e68U, 0x3e728c0f3f8dcfd3U,
  0x3c7a5f073f4b6d36U, 0x3e4b6d363f94a86cU, 0xbd9c7b643f62e61eU, 0x3e94a86c3f88ebf8U,
  0xbdfa5f073f66cf9aU, 0x3ea837d93f86f73aU, 0xbd7a5f073f514b70U, 0x3e88ebf83f92b3aeU,
  0x3c7a5f07bddb1326U, 0x3e8cd5743e1c7b64U, 0x3d5b1326be244e5dU, 0x3e728c0f3e53402eU,
  0xbd1c7b64bd8cd574U, 0x3ea837d93deab917U, 0xbd9c7b64bd5b1326U, 0x3ebfb0c13dcb6d36U,
  0xbcbbc745be14a86cU, 0x3ea064e03e3bc745U, 0x3c7a5f07bd8cd574U, 0x3e8cd5743e439a3dU,
  0x3d5b1326bdfa5f07U, 0x3e728c0f3e7a5f07U, 0xbd1c7b64bcfa5f07U, 0x3ea837d93e1c7b64U,
  0xbd9c7b64bc7a5f07U, 0x3ebfb0c13e0cd574U, 0xbcbbc745bdcb6d36U, 0x3ea064e03e6ab917U,
  0x3c7a5f07bcbbc745U, 0x3e8cd5743e728c0fU, 0x3d5b1326bd9c7b64U, 0x3e728c0f3e94a86cU,
  0xbd1c7b643c7a5f07U, 0x3ea837d93e4b6d36U, 0xbd9c7b643cfa5f07U, 0x3ebfb0c13e33f44dU,
  0xbcbbc745bd7a5f07U, 0x3ea064e03e88ebf8U, 0x3c7a5f073c7a5f07U, 0x3e8cd5743e8cd574U,
  0x3d5b1326bd1c7b64U, 0x3e728c0f3ea837d9U, 0xbd1c7b643d5b1326U, 0x3ea837d93e728c0fU,
  0xbd9c7b643d8cd574U, 0x3ebfb0c13e62e61eU, 0xbcbbc745bcbbc745U, 0x3ea064e03ea064e0U,
  0x3c7a5f073d7a5f07U, 0x3e8cd5743ea44e5dU, 0x3d5b132600000000U, 0x3e728c0f3ebfb0c1U,
  0xbd1c7b643dcb6d36U, 0x3ea837d93e90bef0U, 0xbd9c7b643deab917U, 0x3ebfb0c13e85027cU,
  0xbcbbc7453cbbc745U, 0x3ea064e03eb3f44dU, 0x3c7a5f073dcb6d36U, 0x3e8cd5743eb7ddc9U,
  0x3d5b13263d3bc745U, 0x3e728c0f3ed3402eU, 0xbd1c7b643e0cd574U, 0x3ea837d93ea44e5dU,
  0xbd9c7b643e1c7b64U, 0x3ebfb0c13e9c7b64U, 0xbcbbc7453d7a5f07U, 0x3ea064e03ecb6d36U,
  0x3c7a5f073e0cd574U, 0x3e8cd5743ecb6d36U, 0x3d5b13263dac2155U, 0x3e728c0f3eeab917U,
  0xbd1c7b643e33f44dU, 0x3ea837d93eb7ddc9U, 0xbd9c7b643e4b6d36U, 0x3ebfb0c13eb00ad1U,
  0xbcbbc7453ddb1326U, 0x3ea064e03edefca2U, 0x3c7a5f073e3bc745U, 0x3e8cd5743ee2e61eU,
  0x3d5b13263e05027cU, 0x3e728c0f3efe4883U, 0xbd1c7b643e62e61eU, 0x3ea837d93ecf56b2U,
  0xbd9c7b643e728c0fU, 0x3ebfb0c13ec783baU, 0xbcbbc7453e14a86cU, 0x3ea064e03ef28c0fU,
  0x3c7a5f073e62e61eU, 0x3e8cd5743ef6758bU, 0x3d5b13263e2c2155U, 0x3e728c0f3f08ebf8U,
  0xbd1c7b643e85027cU, 0x3ea837d93ee2e61eU, 0xbd9c7b643e90bef0U, 0x3ebfb0c13edb1326U,
  0xbcbbc7453e439a3dU, 0x3ea064e03f05027cU, 0x3c7a5f073e88ebf8U, 0x3e8cd5743f06f73aU,
  0x3d5b13263e5b1326U, 0x3e728c0f3f14a86cU, 0xbd1c7b643e9c7b64U, 0x3ea837d93efa5f07U,
  0xbd9c7b643ea44e5dU, 0x3ebfb0c13ef28c0fU, 0xbcbbc7453e6ab917U, 0x3ea064e03f0eca32U,
  0x3c7a5f073e9c7b64U, 0x3e8cd5743f10bef0U, 0x3d5b13263e811900U, 0x3e728c0f3f1e7022U,
  0xbd1c7b643eb00ad1U, 0x3ea837d93f06f73aU, 0xbd9c7b643eb7ddc9U, 0x3ebfb0c13f030dbeU,
  0xbcbbc7453e8cd574U, 0x3ea064e03f1a86a6U, 0x3c7a5f073eb3f44dU, 0x3e8cd5743f1c7b64U,
  0x3d5b13263e9891e8U, 0x3e728c0f3f2a2c97U, 0xbd1c7b643ec783baU, 0x3ea837d93f12b3aeU,
  0xbd9c7b643ecf56b2U, 0x3ebfb0c13f0eca32U, 0xbcbbc7453ea064e0U, 0x3ea064e03f244e5dU,
  0x3c7a5f073ec783baU, 0x3e8cd5743f26431bU, 0x3d5b13263eac2155U, 0x3e728c0f3f33f44dU,
  0xbd1c7b643edb1326U, 0x3ea837d93f1c7b64U, 0xbd9c7b643ee2e61eU, 0x3ebfb0c13f1891e8U,
  0xbcbbc7453eb7ddc9U, 0x3ea064e03f300ad1U, 0x3c7a5f073edefca2U, 0x3e8cd5743f31ff8fU,
  0x3d5b13263ec39a3dU, 0x3e728c0f3f3fb0c1U, 0xbd1c7b643ef28c0fU, 0x3ea837d93f2837d9U,
  0xbd9c7b643efa5f07U, 0x3ebfb0c13f22599fU, 0xbcbbc7453ecb6d36U, 0x3ea064e03f39d287U,
  0x3c7a5f073ef28c0fU, 0x3e8cd5743f3bc745U, 0x3d5b13263ed729aaU, 0x3e728c0f3f497878U,
  0xbd1c7b643f030dbeU, 0x3ea837d93f31ff8fU, 0xbd9c7b643f06f73aU, 0x3ebfb0c13f2e1613U,
  0xbcbbc7453edefca2U, 0x3ea064e03f458efcU, 0x3c7a5f073f05027cU, 0x3e8cd5743f4783baU,
  0x3d5b13263eeab917U, 0x3e728c0f3f5534ecU, 0xbd1c7b643f0cd574U, 0x3ea837d93f3dbc03U,
  0xbd9c7b643f12b3aeU, 0x3ebfb0c13f37ddc9U, 0xbcbbc7453ef6758bU, 0x3ea064e03f4f56b2U,
  0x3c7a5f073f0eca32U, 0x3e8cd5743f514b70U, 0x3d5b13263f011900U, 0x3e728c0f3f5efca2U,
  0xbd1c7b643f1891e8U, 0x3ea837d93f4783baU, 0xbd9c7b643f1c7b64U, 0x3ebfb0c13f439a3dU,
  0xbcbbc7453f05027cU, 0x3ea064e03f5b1326U, 0x3c7a5f073f1891e8U, 0x3e8cd5743f5b1326U,
  0x3d5b13263f0ae0b6U, 0x3e728c0f3f68c459U, 0xbd1c7b643f22599fU, 0x3ea837d93f514b70U,
  0xbd9c7b643f2837d9U, 0x3ebfb0c13f4d61f4U, 0xbcbbc7453f10bef0U, 0x3ea064e03f64dadcU,
  0x3c7a5f073f244e5dU, 0x3e8cd5743f66cf9aU, 0x3d5b13263f169d2aU, 0x3e728c0f3f7480cdU,
  0xbd1c7b643f2e1613U, 0x3ea837d93f5d07e4U, 0xbd9c7b643f31ff8fU, 0x3ebfb0c13f591e68U,
  0xbcbbc7453f1a86a6U, 0x3ea064e03f6ea293U, 0x3c7a5f073f2e1613U, 0x3e8cd5743f709751U,
  0x3d5b13263f2064e0U, 0x3e728c0f3f7e4883U, 0xbd1c7b643f37ddc9U, 0x3ea837d93f66cf9aU,
  0xbd9c7b643f3dbc03U, 0x3ebfb0c13f62e61eU, 0xbcbbc7453f26431bU, 0x3ea064e03f7a5f07U,
  0x3c7a5f073f39d287U, 0x3e8cd5743f7c53c5U, 0x3d5b13263f2c2155U, 0x3e728c0f3f85027cU,
  0xbd1c7b643f439a3dU, 0x3ea837d93f728c0fU, 0xbd9c7b643f4783baU, 0x3ebfb0c13f6ea293U,
  0xbcbbc7453f300ad1U, 0x3ea064e03f82135fU, 0x3c7a5f073f439a3dU, 0x3e8cd5743f830dbeU,
  0x3d5b13263f35e90bU, 0x3e728c0f3f89e657U, 0xbd1c7b643f4d61f4U, 0x3ea837d93f7c53c5U,
  0xbd9c7b643f514b70U, 0x3ebfb0c13f786a49U, 0xbcbbc7453f3bc745U, 0x3ea064e03f87f199U,
  0x3c7a5f073f4f56b2U, 0x3e8cd5743f88ebf8U, 0x3d5b13263f41a57fU, 0x3e728c0f3f8fc491U,
  0xbd1c7b643f591e68U, 0x3ea837d93f84081dU, 0xbd9c7b643f5d07e4U, 0x3ebfb0c13f82135fU,
  0xbcbbc7453f458efcU, 0x3ea064e03f8cd574U, 0x3c7a5f073f591e68U, 0x3e8cd5743f8dcfd3U,
  0x3d5b13263f4b6d36U, 0x3e728c0f3f94a86cU, 0xbd1c7b643f62e61eU, 0x3ea837d93f88ebf8U,
  0xbd9c7b643f66cf9aU, 0x3ebfb0c13f86f73aU, 0xbcbbc7453f514b70U, 0x3ea064e03f92b3aeU,
  0x3d7a5f07bddb1326U, 0x3ea44e5d3e1c7b64U, 0x3dcb6d36be244e5dU, 0x3e90bef03e53402eU,
  0xbd8cd574U, 0x3ebfb0c13deab917U, 0xbd1c7b64bd5b1326U, 0x3ed3402e3dcb6d36U,
  0x3cbbc745be14a86cU, 0x3eb3f44d3e3bc745U, 0x3d7a5f07bd8cd574U, 0x3ea44e5d3e439a3dU,
  0x3dcb6d36bdfa5f07U, 0x3e90bef03e7a5f07U, 0xbcfa5f07U, 0x3ebfb0c13e1c7b64U,
  0xbd1c7b64bc7a5f07U, 0x3ed3402e3e0cd574U, 0x3cbbc745bdcb6d36U, 0x3eb3f44d3e6ab917U,
  0x3d7a5f07bcbbc745U, 0x3ea44e5d3e728c0fU, 0x3dcb6d36bd9c7b64U, 0x3e90bef03e94a86cU,
  0x3c7a5f07U, 0x3ebfb0c13e4b6d36U, 0xbd1c7b643cfa5f07U, 0x3ed3402e3e33f44dU,
  0x3cbbc745bd7a5f07U, 0x3eb3f44d3e88ebf8U, 0x3d7a5f073c7a5f07U, 0x3ea44e5d3e8cd574U,
  0x3dcb6d36bd1c7b64U, 0x3e90bef03ea837d9U, 0x3d5b1326U, 0x3ebfb0c13e728c0fU,
  0xbd1c7b643d8cd574U, 0x3ed3402e3e62e61eU, 0x3cbbc745bcbbc745U, 0x3eb3f44d3ea064e0U,
  0x3d7a5f073d7a5f07U, 0x3ea44e5d3ea44e5dU, 0x3dcb6d3600000000U, 0x3e90bef03ebfb0c1U,
  0x3dcb6d36U, 0x3ebfb0c13e90bef0U, 0xbd1c7b643deab917U, 0x3ed3402e3e85027cU,
  0x3cbbc7453cbbc745U, 0x3eb3f44d3eb3f44dU, 0x3d7a5f073dcb6d36U, 0x3ea44e5d3eb7ddc9U,
  0x3dcb6d363d3bc745U, 0x3e90bef03ed3402eU, 0x3e0cd574U, 0x3ebfb0c13ea44e5dU,
  0xbd1c7b643e1c7b64U, 0x3ed3402e3e9c7b64U, 0x3cbbc7453d7a5f07U, 0x3eb3f44d3ecb6d36U,
  0x3d7a5f073e0cd574U, 0x3ea44e5d3ecb6d36U, 0x3dcb6d363dac2155U, 0x3e90bef03eeab917U,
  0x3e33f44dU, 0x3ebfb0c13eb7ddc9U, 0xbd1c7b643e4b6d36U, 0x3ed3402e3eb00ad1U,
  0x3cbbc7453ddb1326U, 0x3eb3f44d3edefca2U, 0x3d7a5f073e3bc745U, 0x3ea44e5d3ee2e61eU,
  0x3dcb6d363e05027cU, 0x3e90bef03efe4883U, 0x3e62e61eU, 0x3ebfb0c13ecf56b2U,
  0xbd1c7b643e728c0fU, 0x3ed3402e3ec783baU, 0x3cbbc7453e14a86cU, 0x3eb3f44d3ef28c0fU,
  0x3d7a5f073e62e61eU, 0x3ea44e5d3ef6758bU, 0x3dcb6d363e2c2155U, 0x3e90bef03f08ebf8U,
  0x3e85027cU, 0x3ebfb0c13ee2e61eU, 0xbd1c7b643e90bef0U, 0x3ed3402e3edb1326U,
  0x3cbbc7453e439a3dU, 0x3eb3f44d3f05027cU, 0x3d7a5f073e88ebf8U, 0x3ea44e5d3f06f73aU,
  0x3dcb6d363e5b1326U, 0x3e90bef03f14a86cU, 0x3e9c7b64U, 0x3ebfb0c13efa5f07U,
  0xbd1c7b643ea44e5dU, 0x3ed3402e3ef28c0fU, 0x3cbbc7453e6ab917U, 0x3eb3f44d3f0eca32U,
  0x3d7a5f073e9c7b64U, 0x3ea44e5d3f10bef0U, 0x3dcb6d363e811900U, 0x3e90bef03f1e7022U,
  0x3eb00ad1U, 0x3ebfb0c13f06f73aU, 0xbd1c7b643eb7ddc9U, 0x3ed3402e3f030dbeU,
  0x3cbbc7453e8cd574U, 0x3eb3f44d3f1a86a6U, 0x3d7a5f073eb3f44dU, 0x3ea44e5d3f1c7b64U,
  0x3dcb6d363e9891e8U, 0x3e90bef03f2a2c97U, 0x3ec783baU, 0x3ebfb0c13f12b3aeU,
  0xbd1c7b643ecf56b2U, 0x3ed3402e3f0eca32U, 0x3cbbc7453ea064e0U, 0x3eb3f44d3f244e5dU,
  0x3d7a5f073ec783baU, 0x3ea44e5d3f26431bU, 0x3dcb6d363eac2155U, 0x3e90bef03f33f44dU,
  0x3edb1326U, 0x3ebfb0c13f1c7b64U, 0xbd1c7b643ee2e61eU, 0x3ed3402e3f1891e8U,
  0x3cbbc7453eb7ddc9U, 0x3eb3f44d3f300ad1U, 0x3d7a5f073edefca2U, 0x3ea44e5d3f31ff8fU,
  0x3dcb6d363ec39a3dU, 0x3e90bef03f3fb0c1U, 0x3ef28c0fU, 0x3ebfb0c13f2837d9U,
  0xbd1c7b643efa5f07U, 0x3ed3402e3f22599fU, 0x3cbbc7453ecb6d36U, 0x3eb3f44d3f39d287U,
  0x3d7a5f073ef28c0fU, 0x3ea44e5d3f3bc745U, 0x3dcb6d363ed729aaU, 0x3e90bef03f497878U,
  0x3f030dbeU, 0x3ebfb0c13f31ff8fU, 0xbd1c7b643f06f73aU, 0x3ed3402e3f2e1613U,
  0x3cbbc7453edefca2U, 0x3eb3f44d3f458efcU, 0x3d7a5f073f05027cU, 0x3ea44e5d3f4783baU,
  0x3dcb6d363eeab917U, 0x3e90bef03f5534ecU, 0x3f0cd574U, 0x3ebfb0c13f3dbc03U,
  0xbd1c7b643f12b3aeU, 0x3ed3402e3f37ddc9U, 0x3cbbc7453ef6758bU, 0x3eb3f44d3f4f56b2U,
  0x3d7a5f073f0eca32U, 0x3ea44e5d3f514b70U, 0x3dcb6d363f011900U, 0x3e90bef03f5efca2U,
  0x3f1891e8U, 0x3ebfb0c13f4783baU, 0xbd1c7b643f1c7b64U, 0x3ed3402e3f439a3dU,
  0x3cbbc7453f05027cU, 0x3eb3f44d3f5b1326U, 0x3d7a5f073f1891e8U, 0x3ea44e5d3f5b1326U,
  0x3dcb6d363f0ae0b6U, 0x3e90bef03f68c459U, 0x3f22599fU, 0x3ebfb0c13f514b70U,
  0xbd1c7b643f2837d9U, 0x3ed3402e3f4d61f4U, 0x3cbbc7453f10bef0U, 0x3eb3f44d3f64dadcU,
  0x3d7a5f073f244e5dU, 0x3ea44e5d3f66cf9aU, 0x3dcb6d363f169d2aU, 0x3e90bef03f7480cdU,
  0x3f2e1613U, 0x3ebfb0c13f5d07e4U, 0xbd1c7b643f31ff8fU, 0x3ed3402e3f591e68U,
  0x3cbbc7453f1a86a6U, 0x3eb3f44d3f6ea293U, 0x3d7a5f073f2e1613U, 0x3ea44e5d3f709751U,
  0x3dcb6d363f2064e0U, 0x3e90bef03f7e4883U, 0x3f37ddc9U, 0x3ebfb0c13f66cf9aU,
  0xbd1c7b643f3dbc03U, 0x3ed3402e3f62e61eU, 0x3cbbc7453f26431bU, 0x3eb3f44d3f7a5f07U,
  0x3d7a5f073f39d287U, 0x3ea44e5d3f7c53c5U, 0x3dcb6d363f2c2155U, 0x3e90bef03f85027cU,
  0x3f439a3dU, 0x3ebfb0c13f728c0fU, 0xbd1c7b643f4783baU, 0x3ed3402e3f6ea293U,
  0x3cbbc7453f300ad1U, 0x3eb3f44d3f82135fU, 0x3d7a5f073f439a3dU, 0x3ea44e5d3f830dbeU,
  0x3dcb6d363f35e90bU, 0x3e90bef03f89e657U, 0x3f4d61f4U, 0x3ebfb0c13f7c53c5U,
  0xbd1c7b643f514b70U, 0x3ed3402e3f786a49U, 0x3cbbc7453f3bc745U, 0x3eb3f44d3f87f199U,
  0x3d7a5f073f4f56b2U, 0x3ea44e5d3f88ebf8U, 0x3dcb6d363f41a57fU, 0x3e90bef03f8fc491U,
  0x3f591e68U, 0x3ebfb0c13f84081dU, 0xbd1c7b643f5d07e4U, 0x3ed3402e3f82135fU,
  0x3cbbc7453f458efcU, 0x3eb3f44d3f8cd574U, 0x3d7a5f073f591e68U, 0x3ea44e5d3f8dcfd3U,
  0x3dcb6d363f4b6d36U, 0x3e90bef03f94a86cU, 0x3f62e61eU, 0x3ebfb0c13f88ebf8U,
  0xbd1c7b643f66cf9aU, 0x3ed3402e3f86f73aU, 0x3cbbc7453f514b70U, 0x3eb3f44d3f92b3aeU,
  0x3dcb6d36bddb1326U, 0x3eb7ddc93e1c7b64U, 0x3e0cd574be244e5dU, 0x3ea44e5d3e53402eU,
  0x3d3bc745bd8cd574U, 0x3ed3402e3deab917U, 0x3bfa5f07bd5b1326U, 0x3ee6cf9a3dcb6d36U,
  0x3d7a5f07be14a86cU, 0x3ecb6d363e3bc745U, 0x3dcb6d36bd8cd574U, 0x3eb7ddc93e439a3dU,
  0x3e0cd574bdfa5f07U, 0x3ea44e5d3e7a5f07U, 0x3d3bc745bcfa5f07U, 0x3ed3402e3e1c7b64U,
  0x3bfa5f07bc7a5f07U, 0x3ee6cf9a3e0cd574U, 0x3d7a5f07bdcb6d36U, 0x3ecb6d363e6ab917U,
  0x3dcb6d36bcbbc745U, 0x3eb7ddc93e728c0fU, 0x3e0cd574bd9c7b64U, 0x3ea44e5d3e94a86cU,
  0x3d3bc7453c7a5f07U, 0x3ed3402e3e4b6d36U, 0x3bfa5f073cfa5f07U, 0x3ee6cf9a3e33f44dU,
  0x3d7a5f07bd7a5f07U, 0x3ecb6d363e88ebf8U, 0x3dcb6d363c7a5f07U, 0x3eb7ddc93e8cd574U,
  0x3e0cd574bd1c7b64U, 0x3ea44e5d3ea837d9U, 0x3d3bc7453d5b1326U, 0x3ed3402e3e728c0fU,
  0x3bfa5f073d8cd574U, 0x3ee6cf9a3e62e61eU, 0x3d7a5f07bcbbc745U, 0x3ecb6d363ea064e0U,
  0x3dcb6d363d7a5f07U, 0x3eb7ddc93ea44e5dU, 0x3e0cd57400000000U, 0x3ea44e5d3ebfb0c1U,
  0x3d3bc7453dcb6d36U, 0x3ed3402e3e90bef0U, 0x3bfa5f073deab917U, 0x3ee6cf9a3e85027cU,
  0x3d7a5f073cbbc745U, 0x3ecb6d363eb3f44dU, 0x3dcb6d363dcb6d36U, 0x3eb7ddc93eb7ddc9U,
  0x3e0cd5743d3bc745U, 0x3ea44e5d3ed3402eU, 0x3d3bc7453e0cd574U, 0x3ed3402e3ea44e5dU,
  0x3bfa5f073e1c7b64U, 0x3ee6cf9a3e9c7b64U, 0x3d7a5f073d7a5f07U, 0x3ecb6d363ecb6d36U,
  0x3dcb6d363e0cd574U, 0x3eb7ddc93ecb6d36U, 0x3e0cd5743dac2155U, 0x3ea44e5d3eeab917U,
  0x3d3bc7453e33f44dU, 0x3ed3402e3eb7ddc9U, 0x3bfa5f073e4b6d36U, 0x3ee6cf9a3eb00ad1U,
  0x3d7a5f073ddb1326U, 0x3ecb6d363edefca2U, 0x3dcb6d363e3bc745U, 0x3eb7ddc93ee2e61eU,
  0x3e0cd5743e05027cU, 0x3ea44e5d3efe4883U, 0x3d3bc7453e62e61eU, 0x3ed3402e3ecf56b2U,
  0x3bfa5f073e728c0fU, 0x3ee6cf9a3ec783baU, 0x3d7a5f073e14a86cU, 0x3ecb6d363ef28c0fU,
  0x3dcb6d363e62e61eU, 0x3eb7ddc93ef6758bU, 0x3e0cd5743e2c2155U, 0x3ea44e5d3f08ebf8U,
  0x3d3bc7453e85027cU, 0x3ed3402e3ee2e61eU, 0x3bfa5f073e90bef0U, 0x3ee6cf9a3edb1326U,
  0x3d7a5f073e439a3dU, 0x3ecb6d363f05027cU, 0x3dcb6d363e88ebf8U, 0x3eb7ddc93f06f73aU,
  0x3e0cd5743e5b1326U, 0x3ea44e5d3f14a86cU, 0x3d3bc7453e9c7b64U, 0x3ed3402e3efa5f07U,
  0x3bfa5f073ea44e5dU, 0x3ee6cf9a3ef28c0fU, 0x3d7a5f073e6ab917U, 0x3ecb6d363f0eca32U,
  0x3dcb6d363e9c7b64U, 0x3eb7ddc93f10bef0U, 0x3e0cd5743e811900U, 0x3ea44e5d3f1e7022U,
  0x3d3bc7453eb00ad1U, 0x3ed3402e3f06f73aU, 0x3bfa5f073eb7ddc9U, 0x3ee6cf9a3f030dbeU,
  0x3d7a5f073e8cd574U, 0x3ecb6d363f1a86a6U, 0x3dcb6d363eb3f44dU, 0x3eb7ddc93f1c7b64U,
  0x3e0cd5743e9891e8U, 0x3ea44e5d3f2a2c97U, 0x3d3bc7453ec783baU, 0x3ed3402e3f12b3aeU,
  0x3bfa5f073ecf56b2U, 0x3ee6cf9a3f0eca32U, 0x3d7a5f073ea064e0U, 0x3ecb6d363f244e5dU,
  0x3dcb6d363ec783baU, 0x3eb7ddc93f26431bU, 0x3e0cd5743eac2155U, 0x3ea44e5d3f33f44dU,
  0x3d3bc7453edb1326U, 0x3ed3402e3f1c7b64U, 0x3bfa5f073ee2e61eU, 0x3ee6cf9a3f1891e8U,
  0x3d7a5f073eb7ddc9U, 0x3ecb6d363f300ad1U, 0x3dcb6d363edefca2U, 0x3eb7ddc93f31ff8fU,
  0x3e0cd5743ec39a3dU, 0x3ea44e5d3f3fb0c1U, 0x3d3bc7453ef28c0fU, 0x3ed3402e3f2837d9U,
  0x3bfa5f073efa5f07U, 0x3ee6cf9a3f22599fU, 0x3d7a5f073ecb6d36U, 0x3ecb6d363f39d287U,
  0x3dcb6d363ef28c0fU, 0x3eb7ddc93f3bc745U, 0x3e0cd5743ed729aaU, 0x3ea44e5d3f497878U,
  0x3d3bc7453f030dbeU, 0x3ed3402e3f31ff8fU, 0x3bfa5f073f06f73aU, 0x3ee6cf9a3f2e1613U,
  0x3d7a5f073edefca2U, 0x3ecb6d363f458efcU, 0x3dcb6d363f05027cU, 0x3eb7ddc93f4783baU,
  0x3e0cd5743eeab917U, 0x3ea44e5d3f5534ecU, 0x3d3bc7453f0cd574U, 0x3ed3402e3f3dbc03U,
  0x3bfa5f073f12b3aeU, 0x3ee6cf9a3f37ddc9U, 0x3d7a5f073ef6758bU, 0x3ecb6d363f4f56b2U,
  0x3dcb6d363f0eca32U, 0x3eb7ddc93f514b70U, 0x3e0cd5743f011900U, 0x3ea44e5d3f5efca2U,
  0x3d3bc7453f1891e8U, 0x3ed3402e3f4783baU, 0x3bfa5f073f1c7b64U, 0x3ee6cf9a3f439a3dU,
  0x3d7a5f073f05027cU, 0x3ecb6d363f5b1326U, 0x3dcb6d363f1891e8U, 0x3eb7ddc93f5b1326U,
  0x3e0cd5743f0ae0b6U, 0x3ea44e5d3f68c459U, 0x3d3bc7453f22599fU, 0x3ed3402e3f514b70U,
  0x3bfa5f073f2837d9U, 0x3ee6cf9a3f4d61f4U, 0x3d7a5f073f10bef0U, 0x3ecb6d363f64dadcU,
  0x3dcb6d363f244e5dU, 0x3eb7ddc93f66cf9aU, 0x3e0cd5743f169d2aU, 0x3ea44e5d3f7480cdU,
  0x3d3bc7453f2e1613U, 0x3ed3402e3f5d07e4U, 0x3bfa5f073f31ff8fU, 0x3ee6cf9a3f591e68U,
  0x3d7a5f073f1a86a6U, 0x3ecb6d363f6ea293U, 0x3dcb6d363f2e1613U, 0x3eb7ddc93f709751U,
  0x3e0cd5743f2064e0U, 0x3ea44e5d3f7e4883U, 0x3d3bc7453f37ddc9U, 0x3ed3402e3f66cf9aU,
  0x3bfa5f073f3dbc03U, 0x3ee6cf9a3f62e61eU, 0x3d7a5f073f26431bU, 0x3ecb6d363f7a5f07U,
  0x3dcb6d363f39d287U, 0x3eb7ddc93f7c53c5U, 0x3e0cd5743f2c2155U, 0x3ea44e5d3f85027cU,
  0x3d3bc7453f439a3dU, 0x3ed3402e3f728c0fU, 0x3bfa5f073f4783baU, 0x3ee6cf9a3f6ea293U,
  0x3d7a5f073f300ad1U, 0x3ecb6d363f82135fU, 0x3dcb6d363f439a3dU, 0x3eb7ddc93f830dbeU,
  0x3e0cd5743f35e90bU, 0x3ea44e5d3f89e657U, 0x3d3bc7453f4d61f4U, 0x3ed3402e3f7c53c5U,
  0x3bfa5f073f514b70U, 0x3ee6cf9a3f786a49U, 0x3d7a5f073f3bc745U, 0x3ecb6d363f87f199U,
  0x3dcb6d363f4f56b2U, 0x3eb7ddc93f88ebf8U, 0x3e0cd5743f41a57fU, 0x3ea44e5d3f8fc491U,
  0x3d3bc7453f591e68U, 0x3ed3402e3f84081dU, 0x3bfa5f073f5d07e4U, 0x3ee6cf9a3f82135fU,
  0x3d7a5f073f458efcU, 0x3ecb6d363f8cd574U, 0x3dcb6d363f591e68U, 0x3eb7ddc93f8dcfd3U,
  0x3e0cd5743f4b6d36U, 0x3ea44e5d3f94a86cU, 0x3d3bc7453f62e61eU, 0x3ed3402e3f88ebf8U,
  0x3bfa5f073f66cf9aU, 0x3ee6cf9a3f86f73aU, 0x3d7a5f073f514b70U, 0x3ecb6d363f92b3aeU,
  0x3e0cd574bddb1326U, 0x3ecb6d363e1c7b64U, 0x3e33f44dbe244e5dU, 0x3eb7ddc93e53402eU,
  0x3dac2155bd8cd574U, 0x3eeab9173deab917U, 0x3d3bc745bd5b1326U, 0x3efe48833dcb6d36U,
  0x3ddb1326be14a86cU, 0x3edefca23e3bc745U, 0x3e0cd574bd8cd574U, 0x3ecb6d363e439a3dU,
  0x3e33f44dbdfa5f07U, 0x3eb7ddc93e7a5f07U, 0x3dac2155bcfa5f07U, 0x3eeab9173e1c7b64U,
  0x3d3bc745bc7a5f07U, 0x3efe48833e0cd574U, 0x3ddb1326bdcb6d36U, 0x3edefca23e6ab917U,
  0x3e0cd574bcbbc745U, 0x3ecb6d363e728c0fU, 0x3e33f44dbd9c7b64U, 0x3eb7ddc93e94a86cU,
  0x3dac21553c7a5f07U, 0x3eeab9173e4b6d36U, 0x3d3bc7453cfa5f07U, 0x3efe48833e33f44dU,
  0x3ddb1326bd7a5f07U, 0x3edefca23e88ebf8U, 0x3e0cd5743c7a5f07U, 0x3ecb6d363e8cd574U,
  0x3e33f44dbd1c7b64U, 0x3eb7ddc93ea837d9U, 0x3dac21553d5b1326U, 0x3eeab9173e728c0fU,
  0x3d3bc7453d8cd574U, 0x3efe48833e62e61eU, 0x3ddb1326bcbbc745U, 0x3edefca23ea064e0U,
  0x3e0cd5743d7a5f07U, 0x3ecb6d363ea44e5dU, 0x3e33f44d00000000U, 0x3eb7ddc93ebfb0c1U,
  0x3dac21553dcb6d36U, 0x3eeab9173e90bef0U, 0x3d3bc7453deab917U, 0x3efe48833e85027cU,
  0x3ddb13263cbbc745U, 0x3edefca23eb3f44dU, 0x3e0cd5743dcb6d36U, 0x3ecb6d363eb7ddc9U,
  0x3e33f44d3d3bc745U, 0x3eb7ddc93ed3402eU, 0x3dac21553e0cd574U, 0x3eeab9173ea44e5dU,
  0x3d3bc7453e1c7b64U, 0x3efe48833e9c7b64U, 0x3ddb13263d7a5f07U, 0x3edefca23ecb6d36U,
  0x3e0cd5743e0cd574U, 0x3ecb6d363ecb6d36U, 0x3e33f44d3dac2155U, 0x3eb7ddc93eeab917U,
  0x3dac21553e33f44dU, 0x3eeab9173eb7ddc9U, 0x3d3bc7453e4b6d36U, 0x3efe48833eb00ad1U,
  0x3ddb13263ddb1326U, 0x3edefca23edefca2U, 0x3e0cd5743e3bc745U, 0x3ecb6d363ee2e61eU,
  0x3e33f44d3e05027cU, 0x3eb7ddc93efe4883U, 0x3dac21553e62e61eU, 0x3eeab9173ecf56b2U,
  0x3d3bc7453e728c0fU, 0x3efe48833ec783baU, 0x3ddb13263e14a86cU, 0x3edefca23ef28c0fU,
  0x3e0cd5743e62e61eU, 0x3ecb6d363ef6758bU, 0x3e33f44d3e2c2155U, 0x3eb7ddc93f08ebf8U,
  0x3dac21553e85027cU, 0x3eeab9173ee2e61eU, 0x3d3bc7453e90bef0U, 0x3efe48833edb1326U,
  0x3ddb13263e439a3dU, 0x3edefca23f05027cU, 0x3e0cd5743e88ebf8U, 0x3ecb6d363f06f73aU,
  0x3e33f44d3e5b1326U, 0x3eb7ddc93f14a86cU, 0x3dac21553e9c7b64U, 0x3eeab9173efa5f07U,
  0x3d3bc7453ea44e5dU, 0x3efe48833ef28c0fU, 0x3ddb13263e6ab917U, 0x3edefca23f0eca32U,
  0x3e0cd5743e9c7b64U, 0x3ecb6d363f10bef0U, 0x3e33f44d3e811900U, 0x3eb7ddc93f1e7022U,
  0x3dac21553eb00ad1U, 0x3eeab9173f06f73aU, 0x3d3bc7453eb7ddc9U, 0x3efe48833f030dbeU,
  0x3ddb13263e8cd574U, 0x3edefca23f1a86a6U, 0x3e0cd5743eb3f44dU, 0x3ecb6d363f1c7b64U,
  0x3e33f44d3e9891e8U, 0x3eb7ddc93f2a2c97U, 0x3dac21553ec783baU, 0x3eeab9173f12b3aeU,
  0x3d3bc7453ecf56b2U, 0x3efe48833f0eca32U, 0x3ddb13263ea064e0U, 0x3edefca23f244e5dU,
  0x3e0cd5743ec783baU, 0x3ecb6d363f26431bU, 0x3e33f44d3eac2155U, 0x3eb7ddc93f33f44dU,
  0x3dac21553edb1326U, 0x3eeab9173f1c7b64U, 0x3d3bc7453ee2e61eU, 0x3efe48833f1891e8U,
  0x3ddb13263eb7ddc9U, 0x3edefca23f300ad1U, 0x3e0cd5743edefca2U, 0x3ecb6d363f31ff8fU,
  0x3e33f44d3ec39a3dU, 0x3eb7ddc93f3fb0c1U, 0x3dac21553ef28c0fU, 0x3eeab9173f2837d9U,
  0x3d3bc7453efa5f07U, 0x3efe48833f22599fU, 0x3ddb13263ecb6d36U, 0x3edefca23f39d287U,
  0x3e0cd5743ef28c0fU, 0x3ecb6d363f3bc745U, 0x3e33f44d3ed729aaU, 0x3eb7ddc93f497878U,
  0x3dac21553f030dbeU, 0x3eeab9173f31ff8fU, 0x3d3bc7453f06f73aU, 0x3efe48833f2e1613U,
  0x3ddb13263edefca2U, 0x3edefca23f458efcU, 0x3e0cd5743f05027cU, 0x3ecb6d363f4783baU,
  0x3e33f44d3eeab917U, 0x3eb7ddc93f5534ecU, 0x3dac21553f0cd574U, 0x3eeab9173f3dbc03U,
  0x3d3bc7453f12b3aeU, 0x3efe48833f37ddc9U, 0x3ddb13263ef6758bU, 0x3edefca23f4f56b2U,
  0x3e0cd5743f0eca32U, 0x3ecb6d363f514b70U, 0x3e33f44d3f011900U, 0x3eb7ddc93f5efca2U,
  0x3dac21553f1891e8U, 0x3eeab9173f4783baU, 0x3d3bc7453f1c7b64U, 0x3efe48833f439a3dU,
  0x3ddb13263f05027cU, 0x3edefca23f5b1326U, 0x3e0cd5743f1891e8U, 0x3ecb6d363f5b1326U,
  0x3e33f44d3f0ae0b6U, 0x3eb7ddc93f68c459U, 0x3dac21553f22599fU, 0x3eeab9173f514b70U,
  0x3d3bc7453f2837d9U, 0x3efe48833f4d61f4U, 0x3ddb13263f10bef0U, 0x3edefca23f64dadcU,
  0x3e0cd5743f244e5dU, 0x3ecb6d363f66cf9aU, 0x3e33f44d3f169d2aU, 0x3eb7ddc93f7480cdU,
  0x3dac21553f2e1613U, 0x3eeab9173f5d07e4U, 0x3d3bc7453f31ff8fU, 0x3efe48833f591e68U,
  0x3ddb13263f1a86a6U, 0x3edefca23f6ea293U, 0x3e0cd5743f2e1613U, 0x3ecb6d363f709751U,
  0x3e33f44d3f2064e0U, 0x3eb7ddc93f7e4883U, 0x3dac21553f37ddc9U, 0x3eeab9173f66cf9aU,
  0x3d3bc7453f3dbc03U, 0x3efe48833f62e61eU, 0x3ddb13263f26431bU, 0x3edefca23f7a5f07U,
  0x3e0cd5743f39d287U, 0x3ecb6d363f7c53c5U, 0x3e33f44d3f2c2155U, 0x3eb7ddc93f85027cU,
  0x3dac21553f439a3dU, 0x3eeab9173f728c0fU, 0x3d3bc7453f4783baU, 0x3efe48833f6ea293U,
  0x3ddb13263f300ad1U, 0x3edefca23f82135fU, 0x3e0cd5743f439a3dU, 0x3ecb6d363f830dbeU,
  0x3e33f44d3f35e90bU, 0x3eb7ddc93f89e657U, 0x3dac21553f4d61f4U, 0x3eeab9173f7c53c5U,
  0x3d3bc7453f514b70U, 0x3efe48833f786a49U, 0x3ddb13263f3bc745U, 0x3edefca23f87f199U,
  0x3e0cd5743f4f56b2U, 0x3ecb6d363f88ebf8U, 0x3e33f44d3f41a57fU, 0x3eb7ddc93f8fc491U,
  0x3dac21553f591e68U, 0x3eeab9173f84081dU, 0x3d3bc7453f5d07e4U, 0x3efe48833f82135fU,
  0x3ddb13263f458efcU, 0x3edefca23f8cd574U, 0x3e0cd5743f591e68U, 0x3ecb6d363f8dcfd3U,
  0x3e33f44d3f4b6d36U, 0x3eb7ddc93f94a86cU, 0x3dac21553f62e61eU, 0x3eeab9173f88ebf8U,
  0x3d3bc7453f66cf9aU, 0x3efe48833f86f73aU, 0x3ddb13263f514b70U, 0x3edefca23f92b3aeU,
  0x3e3bc745bddb1326U, 0x3ee2e61e3e1c7b64U, 0x3e62e61ebe244e5dU, 0x3ecf56b23e53402eU,
  0x3e05027cbd8cd574U, 0x3efe48833deab917U, 0x3dac2155bd5b1326U, 0x3f08ebf83dcb6d36U,
  0x3e14a86cbe14a86cU, 0x3ef28c0f3e3bc745U, 0x3e3bc745bd8cd574U, 0x3ee2e61e3e439a3dU,
  0x3e62e61ebdfa5f07U, 0x3ecf56b23e7a5f07U, 0x3e05027cbcfa5f07U, 0x3efe48833e1c7b64U,
  0x3dac2155bc7a5f07U, 0x3f08ebf83e0cd574U, 0x3e14a86cbdcb6d36U, 0x3ef28c0f3e6ab917U,
  0x3e3bc745bcbbc745U, 0x3ee2e61e3e728c0fU, 0x3e62e61ebd9c7b64U, 0x3ecf56b23e94a86cU,
  0x3e05027c3c7a5f07U, 0x3efe48833e4b6d36U, 0x3dac21553cfa5f07U, 0x3f08ebf83e33f44dU,
  0x3e14a86cbd7a5f07U, 0x3ef28c0f3e88ebf8U, 0x3e3bc7453c7a5f07U, 0x3ee2e61e3e8cd574U,
  0x3e62e61ebd1c7b64U, 0x3ecf56b23ea837d9U, 0x3e05027c3d5b1326U, 0x3efe48833e728c0fU,
  0x3dac21553d8cd574U, 0x3f08ebf83e62e61eU, 0x3e14a86cbcbbc745U, 0x3ef28c0f3ea064e0U,
  0x3e3bc7453d7a5f07U, 0x3ee2e61e3ea44e5dU, 0x3e62e61e00000000U, 0x3ecf56b23ebfb0c1U,
  0x3e05027c3dcb6d36U, 0x3efe48833e90bef0U, 0x3dac21553deab917U, 0x3f08ebf83e85027cU,
  0x3e14a86c3cbbc745U, 0x3ef28c0f3eb3f44dU, 0x3e3bc7453dcb6d36U, 0x3ee2e61e3eb7ddc9U,
  0x3e62e61e3d3bc745U, 0x3ecf56b23ed3402eU, 0x3e05027c3e0cd574U, 0x3efe48833ea44e5dU,
  0x3dac21553e1c7b64U, 0x3f08ebf83e9c7b64U, 0x3e14a86c3d7a5f07U, 0x3ef28c0f3ecb6d36U,
  0x3e3bc7453e0cd574U, 0x3ee2e61e3ecb6d36U, 0x3e62e61e3dac2155U, 0x3ecf56b23eeab917U,
  0x3e05027c3e33f44dU, 0x3efe48833eb7ddc9U, 0x3dac21553e4b6d36U, 0x3f08ebf83eb00ad1U,
  0x3e14a86c3ddb1326U, 0x3ef28c0f3edefca2U, 0x3e3bc7453e3bc745U, 0x3ee2e61e3ee2e61eU,
  0x3e62e61e3e05027cU, 0x3ecf56b23efe4883U, 0x3e05027c3e62e61eU, 0x3efe48833ecf56b2U,
  0x3dac21553e728c0fU, 0x3f08ebf83ec783baU, 0x3e14a86c3e14a86cU, 0x3ef28c0f3ef28c0fU,
  0x3e3bc7453e62e61eU, 0x3ee2e61e3ef6758bU, 0x3e62e61e3e2c2155U, 0x3ecf56b23f08ebf8U,
  0x3e05027c3e85027cU, 0x3efe48833ee2e61eU, 0x3dac21553e90bef0U, 0x3f08ebf83edb1326U,
  0x3e14a86c3e439a3dU, 0x3ef28c0f3f05027cU, 0x3e3bc7453e88ebf8U, 0x3ee2e61e3f06f73aU,
  0x3e62e61e3e5b1326U, 0x3ecf56b23f14a86cU, 0x3e05027c3e9c7b64U, 0x3efe48833efa5f07U,
  0x3dac21553ea44e5dU, 0x3f08ebf83ef28c0fU, 0x3e14a86c3e6ab917U, 0x3ef28c0f3f0eca32U,
  0x3e3bc7453e9c7b64U, 0x3ee2e61e3f10bef0U, 0x3e62e61e3e811900U, 0x3ecf56b23f1e7022U,
  0x3e05027c3eb00ad1U, 0x3efe48833f06f73aU, 0x3dac21553eb7ddc9U, 0x3f08ebf83f030dbeU,
  0x3e14a86c3e8cd574U, 0x3ef28c0f3f1a86a6U, 0x3e3bc7453eb3f44dU, 0x3ee2e61e3f1c7b64U,
  0x3e62e61e3e9891e8U, 0x3ecf56b23f2a2c97U, 0x3e05027c3ec783baU, 0x3efe48833f12b3aeU,
  0x3dac21553ecf56b2U, 0x3f08ebf83f0eca32U, 0x3e14a86c3ea064e0U, 0x3ef28c0f3f244e5dU,
  0x3e3bc7453ec783baU, 0x3ee2e61e3f26431bU, 0x3e62e61e3eac2155U, 0x3ecf56b23f33f44dU,
  0x3e05027c3edb1326U, 0x3efe48833f1c7b64U, 0x3dac21553ee2e61eU, 0x3f08ebf83f1891e8U,
  0x3e14a86c3eb7ddc9U, 0x3ef28c0f3f300ad1U, 0x3e3bc7453edefca2U, 0x3ee2e61e3f31ff8fU,
  0x3e62e61e3ec39a3dU, 0x3ecf56b23f3fb0c1U, 0x3e05027c3ef28c0fU, 0x3efe48833f2837d9U,
  0x3dac21553efa5f07U, 0x3f08ebf83f22599fU, 0x3e14a86c3ecb6d36U, 0x3ef28c0f3f39d287U,
  0x3e3bc7453ef28c0fU, 0x3ee2e61e3f3bc745U, 0x3e62e61e3ed729aaU, 0x3ecf56b23f497878U,
  0x3e05027c3f030dbeU, 0x3efe48833f31ff8fU, 0x3dac21553f06f73aU, 0x3f08ebf83f2e1613U,
  0x3e14a86c3edefca2U, 0x3ef28c0f3f458efcU, 0x3e3bc7453f05027cU, 0x3ee2e61e3f4783baU,
  0x3e62e61e3eeab917U, 0x3ecf56b23f5534ecU, 0x3e05027c3f0cd574U, 0x3efe48833f3dbc03U,
  0x3dac21553f12b3aeU, 0x3f08ebf83f37ddc9U, 0x3e14a86c3ef6758bU, 0x3ef28c0f3f4f56b2U,
  0x3e3bc7453f0eca32U, 0x3ee2e61e3f514b70U, 0x3e62e61e3f011900U, 0x3ecf56b23f5efca2U,
  0x3e05027c3f1891e8U, 0x3efe48833f4783baU, 0x3dac21553f1c7b64U, 0x3f08ebf83f439a3dU,
  0x3e14a86c3f05027cU, 0x3ef28c0f3f5b1326U, 0x3e3bc7453f1891e8U, 0x3ee2e61e3f5b1326U,
  0x3e62e61e3f0ae0b6U, 0x3ecf56b23f68c459U, 0x3e05027c3f22599fU, 0x3efe48833f514b70U,
  0x3dac21553f2837d9U, 0x3f08ebf83f4d61f4U, 0x3e14a86c3f10bef0U, 0x3ef28c0f3f64dadcU,
  0x3e3bc7453f244e5dU, 0x3ee2e61e3f66cf9aU, 0x3e62e61e3f169d2aU, 0x3ecf56b23f7480cdU,
  0x3e05027c3f2e1613U, 0x3efe48833f5d07e4U, 0x3dac21553f31ff8fU, 0x3f08ebf83f591e68U,
  0x3e14a86c3f1a86a6U, 0x3ef28c0f3f6ea293U, 0x3e3bc7453f2e1613U, 0x3ee2e61e3f709751U,
  0x3e62e61e3f2064e0U, 0x3ecf56b23f7e4883U, 0x3e05027c3f37ddc9U, 0x3efe48833f66cf9aU,
  0x3dac21553f3dbc03U, 0x3f08ebf83f62e61eU, 0x3e14a86c3f26431bU, 0x3ef28c0f3f7a5f07U,
  0x3e3bc7453f39d287U, 0x3ee2e61e3f7c53c5U, 0x3e62e61e3f2c2155U, 0x3ecf56b23f85027cU,
  0x3e05027c3f439a3dU, 0x3efe48833f728c0fU, 0x3dac21553f4783baU, 0x3f08ebf83f6ea293U,
  0x3e14a86c3f300ad1U, 0x3ef28c0f3f82135fU, 0x3e3bc7453f439a3dU, 0x3ee2e61e3f830dbeU,
  0x3e62e61e3f35e90bU, 0x3ecf56b23f89e657U, 0x3e05027c3f4d61f4U, 0x3efe48833f7c53c5U,
  0x3dac21553f514b70U, 0x3f08ebf83f786a49U, 0x3e14a86c3f3bc745U, 0x3ef28c0f3f87f199U,
  0x3e3bc7453f4f56b2U, 0x3ee2e61e3f88ebf8U, 0x3e62e61e3f41a57fU, 0x3ecf56b23f8fc491U,
  0x3e05027c3f591e68U, 0x3efe48833f84081dU, 0x3dac21553f5d07e4U, 0x3f08ebf83f82135fU,
  0x3e14a86c3f458efcU, 0x3ef28c0f3f8cd574U, 0x3e3bc7453f591e68U, 0x3ee2e61e3f8dcfd3U,
  0x3e62e61e3f4b6d36U, 0x3ecf56b23f94a86cU, 0x3e05027c3f62e61eU, 0x3efe48833f88ebf8U,
  0x3dac21553f66cf9aU, 0x3f08ebf83f86f73aU, 0x3e14a86c3f514b70U, 0x3ef28c0f3f92b3aeU,
  0x3e62e61ebddb1326U, 0x3ef6758b3e1c7b64U, 0x3e85027cbe244e5dU, 0x3ee2e61e3e53402eU,
  0x3e2c2155bd8cd574U, 0x3f08ebf83deab917U, 0x3e05027cbd5b1326U, 0x3f14a86c3dcb6d36U,
  0x3e439a3dbe14a86cU, 0x3f05027c3e3bc745U, 0x3e62e61ebd8cd574U, 0x3ef6758b3e439a3dU,
  0x3e85027cbdfa5f07U, 0x3ee2e61e3e7a5f07U, 0x3e2c2155bcfa5f07U, 0x3f08ebf83e1c7b64U,
  0x3e05027cbc7a5f07U, 0x3f14a86c3e0cd574U, 0x3e439a3dbdcb6d36U, 0x3f05027c3e6ab917U,
  0x3e62e61ebcbbc745U, 0x3ef6758b3e728c0fU, 0x3e85027cbd9c7b64U, 0x3ee2e61e3e94a86cU,
  0x3e2c21553c7a5f07U, 0x3f08ebf83e4b6d36U, 0x3e05027c3cfa5f07U, 0x3f14a86c3e33f44dU,
  0x3e439a3dbd7a5f07U, 0x3f05027c3e88ebf8U, 0x3e62e61e3c7a5f07U, 0x3ef6758b3e8cd574U,
  0x3e85027cbd1c7b64U, 0x3ee2e61e3ea837d9U, 0x3e2c21553d5b1326U, 0x3f08ebf83e728c0fU,
  0x3e05027c3d8cd574U, 0x3f14a86c3e62e61eU, 0x3e439a3dbcbbc745U, 0x3f05027c3ea064e0U,
  0x3e62e61e3d7a5f07U, 0x3ef6758b3ea44e5dU, 0x3e85027c00000000U, 0x3ee2e61e3ebfb0c1U,
  0x3e2c21553dcb6d36U, 0x3f08ebf83e90bef0U, 0x3e05027c3deab917U, 0x3f14a86c3e85027cU,
  0x3e439a3d3cbbc745U, 0x3f05027c3eb3f44dU, 0x3e62e61e3dcb6d36U, 0x3ef6758b3eb7ddc9U,
  0x3e85027c3d3bc745U, 0x3ee2e61e3ed3402eU, 0x3e2c21553e0cd574U, 0x3f08ebf83ea44e5dU,
  0x3e05027c3e1c7b64U, 0x3f14a86c3e9c7b64U, 0x3e439a3d3d7a5f07U, 0x3f05027c3ecb6d36U,
  0x3e62e61e3e0cd574U, 0x3ef6758b3ecb6d36U, 0x3e85027c3dac2155U, 0x3ee2e61e3eeab917U,
  0x3e2c21553e33f44dU, 0x3f08ebf83eb7ddc9U, 0x3e05027c3e4b6d36U, 0x3f14a86c3eb00ad1U,
  0x3e439a3d3ddb1326U, 0x3f05027c3edefca2U, 0x3e62e61e3e3bc745U, 0x3ef6758b3ee2e61eU,
  0x3e85027c3e05027cU, 0x3ee2e61e3efe4883U, 0x3e2c21553e62e61eU, 0x3f08ebf83ecf56b2U,
  0x3e05027c3e728c0fU, 0x3f14a86c3ec783baU, 0x3e439a3d3e14a86cU, 0x3f05027c3ef28c0fU,
  0x3e62e61e3e62e61eU, 0x3ef6758b3ef6758bU, 0x3e85027c3e2c2155U, 0x3ee2e61e3f08ebf8U,
  0x3e2c21553e85027cU, 0x3f08ebf83ee2e61eU, 0x3e05027c3e90bef0U, 0x3f14a86c3edb1326U,
  0x3e439a3d3e439a3dU, 0x3f05027c3f05027cU, 0x3e62e61e3e88ebf8U, 0x3ef6758b3f06f73aU,
  0x3e85027c3e5b1326U, 0x3ee2e61e3f14a86cU, 0x3e2c21553e9c7b64U, 0x3f08ebf83efa5f07U,
  0x3e05027c3ea44e5dU, 0x3f14a86c3ef28c0fU, 0x3e439a3d3e6ab917U, 0x3f05027c3f0eca32U,
  0x3e62e61e3e9c7b64U, 0x3ef6758b3f10bef0U, 0x3e85027c3e811900U, 0x3ee2e61e3f1e7022U,
  0x3e2c21553eb00ad1U, 0x3f08ebf83f06f73aU, 0x3e05027c3eb7ddc9U, 0x3f14a86c3f030dbeU,
  0x3e439a3d3e8cd574U, 0x3f05027c3f1a86a6U, 0x3e62e61e3eb3f44dU, 0x3ef6758b3f1c7b64U,
  0x3e85027c3e9891e8U, 0x3ee2e61e3f2a2c97U, 0x3e2c21553ec783baU, 0x3f08ebf83f12b3aeU,
  0x3e05027c3ecf56b2U, 0x3f14a86c3f0eca32U, 0x3e439a3d3ea064e0U, 0x3f05027c3f244e5dU,
  0x3e62e61e3ec783baU, 0x3ef6758b3f26431bU, 0x3e85027c3eac2155U, 0x3ee2e61e3f33f44dU,
  0x3e2c21553edb1326U, 0x3f08ebf83f1c7b64U, 0x3e05027c3ee2e61eU, 0x3f14a86c3f1891e8U,
  0x3e439a3d3eb7ddc9U, 0x3f05027c3f300ad1U, 0x3e62e61e3edefca2U, 0x3ef6758b3f31ff8fU,
  0x3e85027c3ec39a3dU, 0x3ee2e61e3f3fb0c1U, 0x3e2c21553ef28c0fU, 0x3f08ebf83f2837d9U,
  0x3e05027c3efa5f07U, 0x3f14a86c3f22599fU, 0x3e439a3d3ecb6d36U, 0x3f05027c3f39d287U,
  0x3e62e61e3ef28c0fU, 0x3ef6758b3f3bc745U, 0x3e85027c3ed729aaU, 0x3ee2e61e3f497878U,
  0x3e2c21553f030dbeU, 0x3f08ebf83f31ff8fU, 0x3e05027c3f06f73aU, 0x3f14a86c3f2e1613U,
  0x3e439a3d3edefca2U, 0x3f05027c3f458efcU, 0x3e62e61e3f05027cU, 0x3ef6758b3f4783baU,
  0x3e85027c3eeab917U, 0x3ee2e61e3f5534ecU, 0x3e2c21553f0cd574U, 0x3f08ebf83f3dbc03U,
  0x3e05027c3f12b3aeU, 0x3f14a86c3f37ddc9U, 0x3e439a3d3ef6758bU, 0x3f05027c3f4f56b2U,
  0x3e62e61e3f0eca32U, 0x3ef6758b3f514b70U, 0x3e85027c3f011900U, 0x3ee2e61e3f5efca2U,
  0x3e2c21553f1891e8U, 0x3f08ebf83f4783baU, 0x3e05027c3f1c7b64U, 0x3f14a86c3f439a3dU,
  0x3e439a3d3f05027cU, 0x3f05027c3f5b1326U, 0x3e62e61e3f1891e8U, 0x3ef6758b3f5b1326U,
  0x3e85027c3f0ae0b6U, 0x3ee2e61e3f68c459U, 0x3e2c21553f22599fU, 0x3f08ebf83f514b70U,
  0x3e05027c3f2837d9U, 0x3f14a86c3f4d61f4U, 0x3e439a3d3f10bef0U, 0x3f05027c3f64dadcU,
  0x3e62e61e3f244e5dU, 0x3ef6758b3f66cf9aU, 0x3e85027c3f169d2aU, 0x3ee2e61e3f7480cdU,
  0x3e2c21553f2e1613U, 0x3f08ebf83f5d07e4U, 0x3e05027c3f31ff8fU, 0x3f14a86c3f591e68U,
  0x3e439a3d3f1a86a6U, 0x3f05027c3f6ea293U, 0x3e62e61e3f2e1613U, 0x3ef6758b3f709751U,
  0x3e85027c3f2064e0U, 0x3ee2e61e3f7e4883U, 0x3e2c21553f37ddc9U, 0x3f08ebf83f66cf9aU,
  0x3e05027c3f3dbc03U, 0x3f14a86c3f62e61eU, 0x3e439a3d3f26431bU, 0x3f05027c3f7a5f07U,
  0x3e62e61e3f39d287U, 0x3ef6758b3f7c53c5U, 0x3e85027c3f2c2155U, 0x3ee2e61e3f85027cU,
  0x3e2c21553f439a3dU, 0x3f08ebf83f728c0fU, 0x3e05027c3f4783baU, 0x3f14a86c3f6ea293U,
  0x3e439a3d3f300ad1U, 0x3f05027c3f82135fU, 0x3e62e61e3f439a3dU, 0x3ef6758b3f830dbeU,
  0x3e85027c3f35e90bU, 0x3ee2e61e3f89e657U, 0x3e2c21553f4d61f4U, 0x3f08ebf83f7c53c5U,
  0x3e05027c3f514b70U, 0x3f14a86c3f786a49U, 0x3e439a3d3f3bc745U, 0x3f05027c3f87f199U,
  0x3e62e61e3f4f56b2U, 0x3ef6758b3f88ebf8U, 0x3e85027c3f41a57fU, 0x3ee2e61e3f8fc491U,
  0x3e2c21553f591e68U, 0x3f08ebf83f84081dU, 0x3e05027c3f5d07e4U, 0x3f14a86c3f82135fU,
  0x3e439a3d3f458efcU, 0x3f05027c3f8cd574U, 0x3e62e61e3f591e68U, 0x3ef6758b3f8dcfd3U,
  0x3e85027c3f4b6d36U, 0x3ee2e61e3f94a86cU, 0x3e2c21553f62e61eU, 0x3f08ebf83f88ebf8U,
  0x3e05027c3f66cf9aU, 0x3f14a86c3f86f73aU, 0x3e439a3d3f514b70U, 0x3f05027c3f92b3aeU,
  0x3e88ebf8bddb1326U, 0x3f06f73a3e1c7b64U, 0x3e9c7b64be244e5dU, 0x3efa5f073e53402eU,
  0x3e5b1326bd8cd574U, 0x3f14a86c3deab917U, 0x3e2c2155bd5b1326U, 0x3f1e70223dcb6d36U,
  0x3e6ab917be14a86cU, 0x3f0eca323e3bc745U, 0x3e88ebf8bd8cd574U, 0x3f06f73a3e439a3dU,
  0x3e9c7b64bdfa5f07U, 0x3efa5f073e7a5f07U, 0x3e5b1326bcfa5f07U, 0x3f14a86c3e1c7b64U,
  0x3e2c2155bc7a5f07U, 0x3f1e70223e0cd574U, 0x3e6ab917bdcb6d36U, 0x3f0eca323e6ab917U,
  0x3e88ebf8bcbbc745U, 0x3f06f73a3e728c0fU, 0x3e9c7b64bd9c7b64U, 0x3efa5f073e94a86cU,
  0x3e5b13263c7a5f07U, 0x3f14a86c3e4b6d36U, 0x3e2c21553cfa5f07U, 0x3f1e70223e33f44dU,
  0x3e6ab917bd7a5f07U, 0x3f0eca323e88ebf8U, 0x3e88ebf83c7a5f07U, 0x3f06f73a3e8cd574U,
  0x3e9c7b64bd1c7b64U, 0x3efa5f073ea837d9U, 0x3e5b13263d5b1326U, 0x3f14a86c3e728c0fU,
  0x3e2c21553d8cd574U, 0x3f1e70223e62e61eU, 0x3e6ab917bcbbc745U, 0x3f0eca323ea064e0U,
  0x3e88ebf83d7a5f07U, 0x3f06f73a3ea44e5dU, 0x3e9c7b6400000000U, 0x3efa5f073ebfb0c1U,
  0x3e5b13263dcb6d36U, 0x3f14a86c3e90bef0U, 0x3e2c21553deab917U, 0x3f1e70223e85027cU,
  0x3e6ab9173cbbc745U, 0x3f0eca323eb3f44dU, 0x3e88ebf83dcb6d36U, 0x3f06f73a3eb7ddc9U,
  0x3e9c7b643d3bc745U, 0x3efa5f073ed3402eU, 0x3e5b13263e0cd574U, 0x3f14a86c3ea44e5dU,
  0x3e2c21553e1c7b64U, 0x3f1e70223e9c7b64U, 0x3e6ab9173d7a5f07U, 0x3f0eca323ecb6d36U,
  0x3e88ebf83e0cd574U, 0x3f06f73a3ecb6d36U, 0x3e9c7b643dac2155U, 0x3efa5f073eeab917U,
  0x3e5b13263e33f44dU, 0x3f14a86c3eb7ddc9U, 0x3e2c21553e4b6d36U, 0x3f1e70223eb00ad1U,
  0x3e6ab9173ddb1326U, 0x3f0eca323edefca2U, 0x3e88ebf83e3bc745U, 0x3f06f73a3ee2e61eU,
  0x3e9c7b643e05027cU, 0x3efa5f073efe4883U, 0x3e5b13263e62e61eU, 0x3f14a86c3ecf56b2U,
  0x3e2c21553e728c0fU, 0x3f1e70223ec783baU, 0x3e6ab9173e14a86cU, 0x3f0eca323ef28c0fU,
  0x3e88ebf83e62e61eU, 0x3f06f73a3ef6758bU, 0x3e9c7b643e2c2155U, 0x3efa5f073f08ebf8U,
  0x3e5b13263e85027cU, 0x3f14a86c3ee2e61eU, 0x3e2c21553e90bef0U, 0x3f1e70223edb1326U,
  0x3e6ab9173e439a3dU, 0x3f0eca323f05027cU, 0x3e88ebf83e88ebf8U, 0x3f06f73a3f06f73aU,
  0x3e9c7b643e5b1326U, 0x3efa5f073f14a86cU, 0x3e5b13263e9c7b64U, 0x3f14a86c3efa5f07U,
  0x3e2c21553ea44e5dU, 0x3f1e70223ef28c0fU, 0x3e6ab9173e6ab917U, 0x3f0eca323f0eca32U,
  0x3e88ebf83e9c7b64U, 0x3f06f73a3f10bef0U, 0x3e9c7b643e811900U, 0x3efa5f073f1e7022U,
  0x3e5b13263eb00ad1U, 0x3f14a86c3f06f73aU, 0x3e2c21553eb7ddc9U, 0x3f1e70223f030dbeU,
  0x3e6ab9173e8cd574U, 0x3f0eca323f1a86a6U, 0x3e88ebf83eb3f44dU, 0x3f06f73a3f1c7b64U,
  0x3e9c7b643e9891e8U, 0x3efa5f073f2a2c97U, 0x3e5b13263ec783baU, 0x3f14a86c3f12b3aeU,
  0x3e2c21553ecf56b2U, 0x3f1e70223f0eca32U, 0x3e6ab9173ea064e0U, 0x3f0eca323f244e5dU,
  0x3e88ebf83ec783baU, 0x3f06f73a3f26431bU, 0x3e9c7b643eac2155U, 0x3efa5f073f33f44dU,
  0x3e5b13263edb1326U, 0x3f14a86c3f1c7b64U, 0x3e2c21553ee2e61eU, 0x3f1e70223f1891e8U,
  0x3e6ab9173eb7ddc9U, 0x3f0eca323f300ad1U, 0x3e88ebf83edefca2U, 0x3f06f73a3f31ff8fU,
  0x3e9c7b643ec39a3dU, 0x3efa5f073f3fb0c1U, 0x3e5b13263ef28c0fU, 0x3f14a86c3f2837d9U,
  0x3e2c21553efa5f07U, 0x3f1e70223f22599fU, 0x3e6ab9173ecb6d36U, 0x3f0eca323f39d287U,
  0x3e88ebf83ef28c0fU, 0x3f06f73a3f3bc745U, 0x3e9c7b643ed729aaU, 0x3efa5f073f497878U,
  0x3e5b13263f030dbeU, 0x3f14a86c3f31ff8fU, 0x3e2c21553f06f73aU, 0x3f1e70223f2e1613U,
  0x3e6ab9173edefca2U, 0x3f0eca323f458efcU, 0x3e88ebf83f05027cU, 0x3f06f73a3f4783baU,
  0x3e9c7b643eeab917U, 0x3efa5f073f5534ecU, 0x3e5b13263f0cd574U, 0x3f14a86c3f3dbc03U,
  0x3e2c21553f12b3aeU, 0x3f1e70223f37ddc9U, 0x3e6ab9173ef6758bU, 0x3f0eca323f4f56b2U,
  0x3e88ebf83f0eca32U, 0x3f06f73a3f514b70U, 0x3e9c7b643f011900U, 0x3efa5f073f5efca2U,
  0x3e5b13263f1891e8U, 0x3f14a86c3f4783baU, 0x3e2c21553f1c7b64U, 0x3f1e70223f439a3dU,
  0x3e6ab9173f05027cU, 0x3f0eca323f5b1326U, 0x3e88ebf83f1891e8U, 0x3f06f73a3f5b1326U,
  0x3e9c7b643f0ae0b6U, 0x3efa5f073f68c459U, 0x3e5b13263f22599fU, 0x3f14a86c3f514b70U,
  0x3e2c21553f2837d9U, 0x3f1e70223f4d61f4U, 0x3e6ab9173f10bef0U, 0x3f0eca323f64dadcU,
  0x3e88ebf83f244e5dU, 0x3f06f73a3f66cf9aU, 0x3e9c7b643f169d2aU, 0x3efa5f073f7480cdU,
  0x3e5b13263f2e1613U, 0x3f14a86c3f5d07e4U, 0x3e2c21553f31ff8fU, 0x3f1e70223f591e68U,
  0x3e6ab9173f1a86a6U, 0x3f0eca323f6ea293U, 0x3e88ebf83f2e1613U, 0x3f06f73a3f709751U,
  0x3e9c7b643f2064e0U, 0x3efa5f073f7e4883U, 0x3e5b13263f37ddc9U, 0x3f14a86c3f66cf9aU,
  0x3e2c21553f3dbc03U, 0x3f1e70223f62e61eU, 0x3e6ab9173f26431bU, 0x3f0eca323f7a5f07U,
  0x3e88ebf83f39d287U, 0x3f06f73a3f7c53c5U, 0x3e9c7b643f2c2155U, 0x3efa5f073f85027cU,
  0x3e5b13263f439a3dU, 0x3f14a86c3f728c0fU, 0x3e2c21553f4783baU, 0x3f1e70223f6ea293U,
  0x3e6ab9173f300ad1U, 0x3f0eca323f82135fU, 0x3e88ebf83f439a3dU, 0x3f06f73a3f830dbeU,
  0x3e9c7b643f35e90bU, 0x3efa5f073f89e657U, 0x3e5b13263f4d61f4U, 0x3f14a86c3f7c53c5U,
  0x3e2c21553f514b70U, 0x3f1e70223f786a49U, 0x3e6ab9173f3bc745U, 0x3f0eca323f87f199U,
  0x3e88ebf83f4f56b2U, 0x3f06f73a3f88ebf8U, 0x3e9c7b643f41a57fU, 0x3efa5f073f8fc491U,
  0x3e5b13263f591e68U, 0x3f14a86c3f84081dU, 0x3e2c21553f5d07e4U, 0x3f1e70223f82135fU,
  0x3e6ab9173f458efcU, 0x3f0eca323f8cd574U, 0x3e88ebf83f591e68U, 0x3f06f73a3f8dcfd3U,
  0x3e9c7b643f4b6d36U, 0x3efa5f073f94a86cU, 0x3e5b13263f62e61eU, 0x3f14a86c3f88ebf8U,
  0x3e2c21553f66cf9aU, 0x3f1e70223f86f73aU, 0x3e6ab9173f514b70U, 0x3f0eca323f92b3aeU,
  0x3e9c7b64bddb1326U, 0x3f10bef03e1c7b64U, 0x3eb00ad1be244e5dU, 0x3f06f73a3e53402eU,
  0x3e811900bd8cd574U, 0x3f1e70223deab917U, 0x3e5b1326bd5b1326U, 0x3f2a2c973dcb6d36U,
  0x3e8cd574be14a86cU, 0x3f1a86a63e3bc745U, 0x3e9c7b64bd8cd574U, 0x3f10bef03e439a3dU,
  0x3eb00ad1bdfa5f07U, 0x3f06f73a3e7a5f07U, 0x3e811900bcfa5f07U, 0x3f1e70223e1c7b64U,
  0x3e5b1326bc7a5f07U, 0x3f2a2c973e0cd574U, 0x3e8cd574bdcb6d36U, 0x3f1a86a63e6ab917U,
  0x3e9c7b64bcbbc745U, 0x3f10bef03e728c0fU, 0x3eb00ad1bd9c7b64U, 0x3f06f73a3e94a86cU,
  0x3e8119003c7a5f07U, 0x3f1e70223e4b6d36U, 0x3e5b13263cfa5f07U, 0x3f2a2c973e33f44dU,
  0x3e8cd574bd7a5f07U, 0x3f1a86a63e88ebf8U, 0x3e9c7b643c7a5f07U, 0x3f10bef03e8cd574U,
  0x3eb00ad1bd1c7b64U, 0x3f06f73a3ea837d9U, 0x3e8119003d5b1326U, 0x3f1e70223e728c0fU,
  0x3e5b13263d8cd574U, 0x3f2a2c973e62e61eU, 0x3e8cd574bcbbc745U, 0x3f1a86a63ea064e0U,
  0x3e9c7b643d7a5f07U, 0x3f10bef03ea44e5dU, 0x3eb00ad100000000U, 0x3f06f73a3ebfb0c1U,
  0x3e8119003dcb6d36U, 0x3f1e70223e90bef0U, 0x3e5b13263deab917U, 0x3f2a2c973e85027cU,
  0x3e8cd5743cbbc745U, 0x3f1a86a63eb3f44dU, 0x3e9c7b643dcb6d36U, 0x3f10bef03eb7ddc9U,
  0x3eb00ad13d3bc745U, 0x3f06f73a3ed3402eU, 0x3e8119003e0cd574U, 0x3f1e70223ea44e5dU,
  0x3e5b13263e1c7b64U, 0x3f2a2c973e9c7b64U, 0x3e8cd5743d7a5f07U, 0x3f1a86a63ecb6d36U,
  0x3e9c7b643e0cd574U, 0x3f10bef03ecb6d36U, 0x3eb00ad13dac2155U, 0x3f06f73a3eeab917U,
  0x3e8119003e33f44dU, 0x3f1e70223eb7ddc9U, 0x3e5b13263e4b6d36U, 0x3f2a2c973eb00ad1U,
  0x3e8cd5743ddb1326U, 0x3f1a86a63edefca2U, 0x3e9c7b643e3bc745U, 0x3f10bef03ee2e61eU,
  0x3eb00ad13e05027cU, 0x3f06f73a3efe4883U, 0x3e8119003e62e61eU, 0x3f1e70223ecf56b2U,
  0x3e5b13263e728c0fU, 0x3f2a2c973ec783baU, 0x3e8cd5743e14a86cU, 0x3f1a86a63ef28c0fU,
  0x3e9c7b643e62e61eU, 0x3f10bef03ef6758bU, 0x3eb00ad13e2c2155U, 0x3f06f73a3f08ebf8U,
  0x3e8119003e85027cU, 0x3f1e70223ee2e61eU, 0x3e5b13263e90bef0U, 0x3f2a2c973edb1326U,
  0x3e8cd5743e439a3dU, 0x3f1a86a63f05027cU, 0x3e9c7b643e88ebf8U, 0x3f10bef03f06f73aU,
  0x3eb00ad13e5b1326U, 0x3f06f73a3f14a86cU, 0x3e8119003e9c7b64U, 0x3f1e70223efa5f07U,
  0x3e5b13263ea44e5dU, 0x3f2a2c973ef28c0fU, 0x3e8cd5743e6ab917U, 0x3f1a86a63f0eca32U,
  0x3e9c7b643e9c7b64U, 0x3f10bef03f10bef0U, 0x3eb00ad13e811900U, 0x3f06f73a3f1e7022U,
  0x3e8119003eb00ad1U, 0x3f1e70223f06f73aU, 0x3e5b13263eb7ddc9U, 0x3f2a2c973f030dbeU,
  0x3e8cd5743e8cd574U, 0x3f1a86a63f1a86a6U, 0x3e9c7b643eb3f44dU, 0x3f10bef03f1c7b64U,
  0x3eb00ad13e9891e8U, 0x3f06f73a3f2a2c97U, 0x3e8119003ec783baU, 0x3f1e70223f12b3aeU,
  0x3e5b13263ecf56b2U, 0x3f2a2c973f0eca32U, 0x3e8cd5743ea064e0U, 0x3f1a86a63f244e5dU,
  0x3e9c7b643ec783baU, 0x3f10bef03f26431bU, 0x3eb00ad13eac2155U, 0x3f06f73a3f33f44dU,
  0x3e8119003edb1326U, 0x3f1e70223f1c7b64U, 0x3e5b13263ee2e61eU, 0x3f2a2c973f1891e8U,
  0x3e8cd5743eb7ddc9U, 0x3f1a86a63f300ad1U, 0x3e9c7b643edefca2U, 0x3f10bef03f31ff8fU,
  0x3eb00ad13ec39a3dU, 0x3f06f73a3f3fb0c1U, 0x3e8119003ef28c0fU, 0x3f1e70223f2837d9U,
  0x3e5b13263efa5f07U, 0x3f2a2c973f22599fU, 0x3e8cd5743ecb6d36U, 0x3f1a86a63f39d287U,
  0x3e9c7b643ef28c0fU, 0x3f10bef03f3bc745U, 0x3eb00ad13ed729aaU, 0x3f06f73a3f497878U,
  0x3e8119003f030dbeU, 0x3f1e70223f31ff8fU, 0x3e5b13263f06f73aU, 0x3f2a2c973f2e1613U,
  0x3e8cd5743edefca2U, 0x3f1a86a63f458efcU, 0x3e9c7b643f05027cU, 0x3f10bef03f4783baU,
  0x3eb00ad13eeab917U, 0x3f06f73a3f5534ecU, 0x3e8119003f0cd574U, 0x3f1e70223f3dbc03U,
  0x3e5b13263f12b3aeU, 0x3f2a2c973f37ddc9U, 0x3e8cd5743ef6758bU, 0x3f1a86a63f4f56b2U,
  0x3e9c7b643f0eca32U, 0x3f10bef03f514b70U, 0x3eb00ad13f011900U, 0x3f06f73a3f5efca2U,
  0x3e8119003f1891e8U, 0x3f1e70223f4783baU, 0x3e5b13263f1c7b64U, 0x3f2a2c973f439a3dU,
  0x3e8cd5743f05027cU, 0x3f1a86a63f5b1326U, 0x3e9c7b643f1891e8U, 0x3f10bef03f5b1326U,
  0x3eb00ad13f0ae0b6U, 0x3f06f73a3f68c459U, 0x3e8119003f22599fU, 0x3f1e70223f514b70U,
  0x3e5b13263f2837d9U, 0x3f2a2c973f4d61f4U, 0x3e8cd5743f10bef0U, 0x3f1a86a63f64dadcU,
  0x3e9c7b643f244e5dU, 0x3f10bef03f66cf9aU, 0x3eb00ad13f169d2aU, 0x3f06f73a3f7480cdU,
  0x3e8119003f2e1613U, 0x3f1e70223f5d07e4U, 0x3e5b13263f31ff8fU, 0x3f2a2c973f591e68U,
  0x3e8cd5743f1a86a6U, 0x3f1a86a63f6ea293U, 0x3e9c7b643f2e1613U, 0x3f10bef03f709751U,
  0x3eb00ad13f2064e0U, 0x3f06f73a3f7e4883U, 0x3e8119003f37ddc9U, 0x3f1e70223f66cf9aU,
  0x3e5b13263f3dbc03U, 0x3f2a2c973f62e61eU, 0x3e8cd5743f26431bU, 0x3f1a86a63f7a5f07U,
  0x3e9c7b643f39d287U, 0x3f10bef03f7c53c5U, 0x3eb00ad13f2c2155U, 0x3f06f73a3f85027cU,
  0x3e8119003f439a3dU, 0x3f1e70223f728c0fU, 0x3e5b13263f4783baU, 0x3f2a2c973f6ea293U,
  0x3e8cd5743f300ad1U, 0x3f1a86a63f82135fU, 0x3e9c7b643f439a3dU, 0x3f10bef03f830dbeU,
  0x3eb00ad13f35e90bU, 0x3f06f73a3f89e657U, 0x3e8119003f4d61f4U, 0x3f1e70223f7c53c5U,
  0x3e5b13263f514b70U, 0x3f2a2c973f786a49U, 0x3e8cd5743f3bc745U, 0x3f1a86a63f87f199U,
  0x3e9c7b643f4f56b2U, 0x3f10bef03f88ebf8U, 0x3eb00ad13f41a57fU, 0x3f06f73a3f8fc491U,
  0x3e8119003f591e68U, 0x3f1e70223f84081dU, 0x3e5b13263f5d07e4U, 0x3f2a2c973f82135fU,
  0x3e8cd5743f458efcU, 0x3f1a86a63f8cd574U, 0x3e9c7b643f591e68U, 0x3f10bef03f8dcfd3U,
  0x3eb00ad13f4b6d36U, 0x3f06f73a3f94a86cU, 0x3e8119003f62e61eU, 0x3f1e70223f88ebf8U,
  0x3e5b13263f66cf9aU, 0x3f2a2c973f86f73aU, 0x3e8cd5743f514b70U, 0x3f1a86a63f92b3aeU,
  0x3eb3f44dbddb1326U, 0x3f1c7b643e1c7b64U, 0x3ec783babe244e5dU, 0x3f12b3ae3e53402eU,
  0x3e9891e8bd8cd574U, 0x3f2a2c973deab917U, 0x3e811900bd5b1326U, 0x3f33f44d3dcb6d36U,
  0x3ea064e0be14a86cU, 0x3f244e5d3e3bc745U, 0x3eb3f44dbd8cd574U, 0x3f1c7b643e439a3dU,
  0x3ec783babdfa5f07U, 0x3f12b3ae3e7a5f07U, 0x3e9891e8bcfa5f07U, 0x3f2a2c973e1c7b64U,
  0x3e811900bc7a5f07U, 0x3f33f44d3e0cd574U, 0x3ea064e0bdcb6d36U, 0x3f244e5d3e6ab917U,
  0x3eb3f44dbcbbc745U, 0x3f1c7b643e728c0fU, 0x3ec783babd9c7b64U, 0x3f12b3ae3e94a86cU,
  0x3e9891e83c7a5f07U, 0x3f2a2c973e4b6d36U, 0x3e8119003cfa5f07U, 0x3f33f44d3e33f44dU,
  0x3ea064e0bd7a5f07U, 0x3f244e5d3e88ebf8U, 0x3eb3f44d3c7a5f07U, 0x3f1c7b643e8cd574U,
  0x3ec783babd1c7b64U, 0x3f12b3ae3ea837d9U, 0x3e9891e83d5b1326U, 0x3f2a2c973e728c0fU,
  0x3e8119003d8cd574U, 0x3f33f44d3e62e61eU, 0x3ea064e0bcbbc745U, 0x3f244e5d3ea064e0U,
  0x3eb3f44d3d7a5f07U, 0x3f1c7b643ea44e5dU, 0x3ec783ba00000000U, 0x3f12b3ae3ebfb0c1U,
  0x3e9891e83dcb6d36U, 0x3f2a2c973e90bef0U, 0x3e8119003deab917U, 0x3f33f44d3e85027cU,
  0x3ea064e03cbbc745U, 0x3f244e5d3eb3f44dU, 0x3eb3f44d3dcb6d36U, 0x3f1c7b643eb7ddc9U,
  0x3ec783ba3d3bc745U, 0x3f12b3ae3ed3402eU, 0x3e9891e83e0cd574U, 0x3f2a2c973ea44e5dU,
  0x3e8119003e1c7b64U, 0x3f33f44d3e9c7b64U, 0x3ea064e03d7a5f07U, 0x3f244e5d3ecb6d36U,
  0x3eb3f44d3e0cd574U, 0x3f1c7b643ecb6d36U, 0x3ec783ba3dac2155U, 0x3f12b3ae3eeab917U,
  0x3e9891e83e33f44dU, 0x3f2a2c973eb7ddc9U, 0x3e8119003e4b6d36U, 0x3f33f44d3eb00ad1U,
  0x3ea064e03ddb1326U, 0x3f244e5d3edefca2U, 0x3eb3f44d3e3bc745U, 0x3f1c7b643ee2e61eU,
  0x3ec783ba3e05027cU, 0x3f12b3ae3efe4883U, 0x3e9891e83e62e61eU, 0x3f2a2c973ecf56b2U,
  0x3e8119003e728c0fU, 0x3f33f44d3ec783baU, 0x3ea064e03e14a86cU, 0x3f244e5d3ef28c0fU,
  0x3eb3f44d3e62e61eU, 0x3f1c7b643ef6758bU, 0x3ec783ba3e2c2155U, 0x3f12b3ae3f08ebf8U,
  0x3e9891e83e85027cU, 0x3f2a2c973ee2e61eU, 0x3e8119003e90bef0U, 0x3f33f44d3edb1326U,
  0x3ea064e03e439a3dU, 0x3f244e5d3f05027cU, 0x3eb3f44d3e88ebf8U, 0x3f1c7b643f06f73aU,
  0x3ec783ba3e5b1326U, 0x3f12b3ae3f14a86cU, 0x3e9891e83e9c7b64U, 0x3f2a2c973efa5f07U,
  0x3e8119003ea44e5dU, 0x3f33f44d3ef28c0fU, 0x3ea064e03e6ab917U, 0x3f244e5d3f0eca32U,
  0x3eb3f44d3e9c7b64U, 0x3f1c7b643f10bef0U, 0x3ec783ba3e811900U, 0x3f12b3ae3f1e7022U,
  0x3e9891e83eb00ad1U, 0x3f2a2c973f06f73aU, 0x3e8119003eb7ddc9U, 0x3f33f44d3f030dbeU,
  0x3ea064e03e8cd574U, 0x3f244e5d3f1a86a6U, 0x3eb3f44d3eb3f44dU, 0x3f1c7b643f1c7b64U,
  0x3ec783ba3e9891e8U, 0x3f12b3ae3f2a2c97U, 0x3e9891e83ec783baU, 0x3f2a2c973f12b3aeU,
  0x3e8119003ecf56b2U, 0x3f33f44d3f0eca32U, 0x3ea064e03ea064e0U, 0x3f244e5d3f244e5dU,
  0x3eb3f44d3ec783baU, 0x3f1c7b643f26431bU, 0x3ec783ba3eac2155U, 0x3f12b3ae3f33f44dU,
  0x3e9891e83edb1326U, 0x3f2a2c973f1c7b64U, 0x3e8119003ee2e61eU, 0x3f33f44d3f1891e8U,
  0x3ea064e03eb7ddc9U, 0x3f244e5d3f300ad1U, 0x3eb3f44d3edefca2U, 0x3f1c7b643f31ff8fU,
  0x3ec783ba3ec39a3dU, 0x3f12b3ae3f3fb0c1U, 0x3e9891e83ef28c0fU, 0x3f2a2c973f2837d9U,
  0x3e8119003efa5f07U, 0x3f33f44d3f22599fU, 0x3ea064e03ecb6d36U, 0x3f244e5d3f39d287U,
  0x3eb3f44d3ef28c0fU, 0x3f1c7b643f3bc745U, 0x3ec783ba3ed729aaU, 0x3f12b3ae3f497878U,
  0x3e9891e83f030dbeU, 0x3f2a2c973f31ff8fU, 0x3e8119003f06f73aU, 0x3f33f44d3f2e1613U,
  0x3ea064e03edefca2U, 0x3f244e5d3f458efcU, 0x3eb3f44d3f05027cU, 0x3f1c7b643f4783baU,
  0x3ec783ba3eeab917U, 0x3f12b3ae3f5534ecU, 0x3e9891e83f0cd574U, 0x3f2a2c973f3dbc03U,
  0x3e8119003f12b3aeU, 0x3f33f44d3f37ddc9U, 0x3ea064e03ef6758bU, 0x3f244e5d3f4f56b2U,
  0x3eb3f44d3f0eca32U, 0x3f1c7b643f514b70U, 0x3ec783ba3f011900U, 0x3f12b3ae3f5efca2U,
  0x3e9891e83f1891e8U, 0x3f2a2c973f4783baU, 0x3e8119003f1c7b64U, 0x3f33f44d3f439a3dU,
  0x3ea064e03f05027cU, 0x3f244e5d3f5b1326U, 0x3eb3f44d3f1891e8U, 0x3f1c7b643f5b1326U,
  0x3ec783ba3f0ae0b6U, 0x3f12b3ae3f68c459U, 0x3e9891e83f22599fU, 0x3f2a2c973f514b70U,
  0x3e8119003f2837d9U, 0x3f33f44d3f4d61f4U, 0x3ea064e03f10bef0U, 0x3f244e5d3f64dadcU,
  0x3eb3f44d3f244e5dU, 0x3f1c7b643f66cf9aU, 0x3ec783ba3f169d2aU, 0x3f12b3ae3f7480cdU,
  0x3e9891e83f2e1613U, 0x3f2a2c973f5d07e4U, 0x3e8119003f31ff8fU, 0x3f33f44d3f591e68U,
  0x3ea064e03f1a86a6U, 0x3f244e5d3f6ea293U, 0x3eb3f44d3f2e1613U, 0x3f1c7b643f709751U,
  0x3ec783ba3f2064e0U, 0x3f12b3ae3f7e4883U, 0x3e9891e83f37ddc9U, 0x3f2a2c973f66cf9aU,
  0x3e8119003f3dbc03U, 0x3f33f44d3f62e61eU, 0x3ea064e03f26431bU, 0x3f244e5d3f7a5f07U,
  0x3eb3f44d3f39d287U, 0x3f1c7b643f7c53c5U, 0x3ec783ba3f2c2155U, 0x3f12b3ae3f85027cU,
  0x3e9891e83f439a3dU, 0x3f2a2c973f728c0fU, 0x3e8119003f4783baU, 0x3f33f44d3f6ea293U,
  0x3ea064e03f300ad1U, 0x3f244e5d3f82135fU, 0x3eb3f44d3f439a3dU, 0x3f1c7b643f830dbeU,
  0x3ec783ba3f35e90bU, 0x3f12b3ae3f89e657U, 0x3e9891e83f4d61f4U, 0x3f2a2c973f7c53c5U,
  0x3e8119003f514b70U, 0x3f33f44d3f786a49U, 0x3ea064e03f3bc745U, 0x3f244e5d3f87f199U,
  0x3eb3f44d3f4f56b2U, 0x3f1c7b643f88ebf8U, 0x3ec783ba3f41a57fU, 0x3f12b3ae3f8fc491U,
  0x3e9891e83f591e68U, 0x3f2a2c973f84081dU, 0x3e8119003f5d07e4U, 0x3f33f44d3f82135fU,
  0x3ea064e03f458efcU, 0x3f244e5d3f8cd574U, 0x3eb3f44d3f591e68U, 0x3f1c7b643f8dcfd3U,
  0x3ec783ba3f4b6d36U, 0x3f12b3ae3f94a86cU, 0x3e9891e83f62e61eU, 0x3f2a2c973f88ebf8U,
  0x3e8119003f66cf9aU, 0x3f33f44d3f86f73aU, 0x3ea064e03f514b70U, 0x3f244e5d3f92b3aeU,
  0x3ec783babddb1326U, 0x3f26431b3e1c7b64U, 0x3edb1326be244e5dU, 0x3f1c7b643e53402eU,
  0x3eac2155bd8cd574U, 0x3f33f44d3deab917U, 0x3e9891e8bd5b1326U, 0x3f3fb0c13dcb6d36U,
  0x3eb7ddc9be14a86cU, 0x3f300ad13e3bc745U, 0x3ec783babd8cd574U, 0x3f26431b3e439a3dU,
  0x3edb1326bdfa5f07U, 0x3f1c7b643e7a5f07U, 0x3eac2155bcfa5f07U, 0x3f33f44d3e1c7b64U,
  0x3e9891e8bc7a5f07U, 0x3f3fb0c13e0cd574U, 0x3eb7ddc9bdcb6d36U, 0x3f300ad13e6ab917U,
  0x3ec783babcbbc745U, 0x3f26431b3e728c0fU, 0x3edb1326bd9c7b64U, 0x3f1c7b643e94a86cU,
  0x3eac21553c7a5f07U, 0x3f33f44d3e4b6d36U, 0x3e9891e83cfa5f07U, 0x3f3fb0c13e33f44dU,
  0x3eb7ddc9bd7a5f07U, 0x3f300ad13e88ebf8U, 0x3ec783ba3c7a5f07U, 0x3f26431b3e8cd574U,
  0x3edb1326bd1c7b64U, 0x3f1c7b643ea837d9U, 0x3eac21553d5b1326U, 0x3f33f44d3e728c0fU,
  0x3e9891e83d8cd574U, 0x3f3fb0c13e62e61eU, 0x3eb7ddc9bcbbc745U, 0x3f300ad13ea064e0U,
  0x3ec783ba3d7a5f07U, 0x3f26431b3ea44e5dU, 0x3edb132600000000U, 0x3f1c7b643ebfb0c1U,
  0x3eac21553dcb6d36U, 0x3f33f44d3e90bef0U, 0x3e9891e83deab917U, 0x3f3fb0c13e85027cU,
  0x3eb7ddc93cbbc745U, 0x3f300ad13eb3f44dU, 0x3ec783ba3dcb6d36U, 0x3f26431b3eb7ddc9U,
  0x3edb13263d3bc745U, 0x3f1c7b643ed3402eU, 0x3eac21553e0cd574U, 0x3f33f44d3ea44e5dU,
  0x3e9891e83e1c7b64U, 0x3f3fb0c13e9c7b64U, 0x3eb7ddc93d7a5f07U, 0x3f300ad13ecb6d36U,
  0x3ec783ba3e0cd574U, 0x3f26431b3ecb6d36U, 0x3edb13263dac2155U, 0x3f1c7b643eeab917U,
  0x3eac21553e33f44dU, 0x3f33f44d3eb7ddc9U, 0x3e9891e83e4b6d36U, 0x3f3fb0c13eb00ad1U,
  0x3eb7ddc93ddb1326U, 0x3f300ad13edefca2U, 0x3ec783ba3e3bc745U, 0x3f26431b3ee2e61eU,
  0x3edb13263e05027cU, 0x3f1c7b643efe4883U, 0x3eac21553e62e61eU, 0x3f33f44d3ecf56b2U,
  0x3e9891e83e728c0fU, 0x3f3fb0c13ec783baU, 0x3eb7ddc93e14a86cU, 0x3f300ad13ef28c0fU,
  0x3ec783ba3e62e61eU, 0x3f26431b3ef6758bU, 0x3edb13263e2c2155U, 0x3f1c7b643f08ebf8U,
  0x3eac21553e85027cU, 0x3f33f44d3ee2e61eU, 0x3e9891e83e90bef0U, 0x3f3fb0c13edb1326U,
  0x3eb7ddc93e439a3dU, 0x3f300ad13f05027cU, 0x3ec783ba3e88ebf8U, 0x3f26431b3f06f73aU,
  0x3edb13263e5b1326U, 0x3f1c7b643f14a86cU, 0x3eac21553e9c7b64U, 0x3f33f44d3efa5f07U,
  0x3e9891e83ea44e5dU, 0x3f3fb0c13ef28c0fU, 0x3eb7ddc93e6ab917U, 0x3f300ad13f0eca32U,
  0x3ec783ba3e9c7b64U, 0x3f26431b3f10bef0U, 0x3edb13263e811900U, 0x3f1c7b643f1e7022U,
  0x3eac21553eb00ad1U, 0x3f33f44d3f06f73aU, 0x3e9891e83eb7ddc9U, 0x3f3fb0c13f030dbeU,
  0x3eb7ddc93e8cd574U, 0x3f300ad13f1a86a6U, 0x3ec783ba3eb3f44dU, 0x3f26431b3f1c7b64U,
  0x3edb13263e9891e8U, 0x3f1c7b643f2a2c97U, 0x3eac21553ec783baU, 0x3f33f44d3f12b3aeU,
  0x3e9891e83ecf56b2U, 0x3f3fb0c13f0eca32U, 0x3eb7ddc93ea064e0U, 0x3f300ad13f244e5dU,
  0x3ec783ba3ec783baU, 0x3f26431b3f26431bU, 0x3edb13263eac2155U, 0x3f1c7b643f33f44dU,
  0x3eac21553edb1326U, 0x3f33f44d3f1c7b64U, 0x3e9891e83ee2e61eU, 0x3f3fb0c13f1891e8U,
  0x3eb7ddc93eb7ddc9U, 0x3f300ad13f300ad1U, 0x3ec783ba3edefca2U, 0x3f26431b3f31ff8fU,
  0x3edb13263ec39a3dU, 0x3f1c7b643f3fb0c1U, 0x3eac21553ef28c0fU, 0x3f33f44d3f2837d9U,
  0x3e9891e83efa5f07U, 0x3f3fb0c13f22599fU, 0x3eb7ddc93ecb6d36U, 0x3f300ad13f39d287U,
  0x3ec783ba3ef28c0fU, 0x3f26431b3f3bc745U, 0x3edb13263ed729aaU, 0x3f1c7b643f497878U,
  0x3eac21553f030dbeU, 0x3f33f44d3f31ff8fU, 0x3e9891e83f06f73aU, 0x3f3fb0c13f2e1613U,
  0x3eb7ddc93edefca2U, 0x3f300ad13f458efcU, 0x3ec783ba3f05027cU, 0x3f26431b3f4783baU,
  0x3edb13263eeab917U, 0x3f1c7b643f5534ecU, 0x3eac21553f0cd574U, 0x3f33f44d3f3dbc03U,
  0x3e9891e83f12b3aeU, 0x3f3fb0c13f37ddc9U, 0x3eb7ddc93ef6758bU, 0x3f300ad13f4f56b2U,
  0x3ec783ba3f0eca32U, 0x3f26431b3f514b70U, 0x3edb13263f011900U, 0x3f1c7b643f5efca2U,
  0x3eac21553f1891e8U, 0x3f33f44d3f4783baU, 0x3e9891e83f1c7b64U, 0x3f3fb0c13f439a3dU,
  0x3eb7ddc93f05027cU, 0x3f300ad13f5b1326U, 0x3ec783ba3f1891e8U, 0x3f26431b3f5b1326U,
  0x3edb13263f0ae0b6U, 0x3f1c7b643f68c459U, 0x3eac21553f22599fU, 0x3f33f44d3f514b70U,
  0x3e9891e83f2837d9U, 0x3f3fb0c13f4d61f4U, 0x3eb7ddc93f10bef0U, 0x3f300ad13f64dadcU,
  0x3ec783ba3f244e5dU, 0x3f26431b3f66cf9aU, 0x3edb13263f169d2aU, 0x3f1c7b643f7480cdU,
  0x3eac21553f2e1613U, 0x3f33f44d3f5d07e4U, 0x3e9891e83f31ff8fU, 0x3f3fb0c13f591e68U,
  0x3eb7ddc93f1a86a6U, 0x3f300ad13f6ea293U, 0x3ec783ba3f2e1613U, 0x3f26431b3f709751U,
  0x3edb13263f2064e0U, 0x3f1c7b643f7e4883U, 0x3eac21553f37ddc9U, 0x3f33f44d3f66cf9aU,
  0x3e9891e83f3dbc03U, 0x3f3fb0c13f62e61eU, 0x3eb7ddc93f26431bU, 0x3f300ad13f7a5f07U,
  0x3ec783ba3f39d287U, 0x3f26431b3f7c53c5U, 0x3edb13263f2c2155U, 0x3f1c7b643f85027cU,
  0x3eac21553f439a3dU, 0x3f33f44d3f728c0fU, 0x3e9891e83f4783baU, 0x3f3fb0c13f6ea293U,
  0x3eb7ddc93f300ad1U, 0x3f300ad13f82135fU, 0x3ec783ba3f439a3dU, 0x3f26431b3f830dbeU,
  0x3edb13263f35e90bU, 0x3f1c7b643f89e657U, 0x3eac21553f4d61f4U, 0x3f33f44d3f7c53c5U,
  0x3e9891e83f514b70U, 0x3f3fb0c13f786a49U, 0x3eb7ddc93f3bc745U, 0x3f300ad13f87f199U,
  0x3ec783ba3f4f56b2U, 0x3f26431b3f88ebf8U, 0x3edb13263f41a57fU, 0x3f1c7b643f8fc491U,
  0x3eac21553f591e68U, 0x3f33f44d3f84081dU, 0x3e9891e83f5d07e4U, 0x3f3fb0c13f82135fU,
  0x3eb7ddc93f458efcU, 0x3f300ad13f8cd574U, 0x3ec783ba3f591e68U, 0x3f26431b3f8dcfd3U,
  0x3edb13263f4b6d36U, 0x3f1c7b643f94a86cU, 0x3eac21553f62e61eU, 0x3f33f44d3f88ebf8U,
  0x3e9891e83f66cf9aU, 0x3f3fb0c13f86f73aU, 0x3eb7ddc93f514b70U, 0x3f300ad13f92b3aeU,
  0x3edefca2bddb1326U, 0x3f31ff8f3e1c7b64U, 0x3ef28c0fbe244e5dU, 0x3f2837d93e53402eU,
  0x3ec39a3dbd8cd574U, 0x3f3fb0c13deab917U, 0x3eac2155bd5b1326U, 0x3f4978783dcb6d36U,
  0x3ecb6d36be14a86cU, 0x3f39d2873e3bc745U, 0x3edefca2bd8cd574U, 0x3f31ff8f3e439a3dU,
  0x3ef28c0fbdfa5f07U, 0x3f2837d93e7a5f07U, 0x3ec39a3dbcfa5f07U, 0x3f3fb0c13e1c7b64U,
  0x3eac2155bc7a5f07U, 0x3f4978783e0cd574U, 0x3ecb6d36bdcb6d36U, 0x3f39d2873e6ab917U,
  0x3edefca2bcbbc745U, 0x3f31ff8f3e728c0fU, 0x3ef28c0fbd9c7b64U, 0x3f2837d93e94a86cU,
  0x3ec39a3d3c7a5f07U, 0x3f3fb0c13e4b6d36U, 0x3eac21553cfa5f07U, 0x3f4978783e33f44dU,
  0x3ecb6d36bd7a5f07U, 0x3f39d2873e88ebf8U, 0x3edefca23c7a5f07U, 0x3f31ff8f3e8cd574U,
  0x3ef28c0fbd1c7b64U, 0x3f2837d93ea837d9U, 0x3ec39a3d3d5b1326U, 0x3f3fb0c13e728c0fU,
  0x3eac21553d8cd574U, 0x3f4978783e62e61eU, 0x3ecb6d36bcbbc745U, 0x3f39d2873ea064e0U,
  0x3edefca23d7a5f07U, 0x3f31ff8f3ea44e5dU, 0x3ef28c0f00000000U, 0x3f2837d93ebfb0c1U,
  0x3ec39a3d3dcb6d36U, 0x3f3fb0c13e90bef0U, 0x3eac21553deab917U, 0x3f4978783e85027cU,
  0x3ecb6d363cbbc745U, 0x3f39d2873eb3f44dU, 0x3edefca23dcb6d36U, 0x3f31ff8f3eb7ddc9U,
  0x3ef28c0f3d3bc745U, 0x3f2837d93ed3402eU, 0x3ec39a3d3e0cd574U, 0x3f3fb0c13ea44e5dU,
  0x3eac21553e1c7b64U, 0x3f4978783e9c7b64U, 0x3ecb6d363d7a5f07U, 0x3f39d2873ecb6d36U,
  0x3edefca23e0cd574U, 0x3f31ff8f3ecb6d36U, 0x3ef28c0f3dac2155U, 0x3f2837d93eeab917U,
  0x3ec39a3d3e33f44dU, 0x3f3fb0c13eb7ddc9U, 0x3eac21553e4b6d36U, 0x3f4978783eb00ad1U,
  0x3ecb6d363ddb1326U, 0x3f39d2873edefca2U, 0x3edefca23e3bc745U, 0x3f31ff8f3ee2e61eU,
  0x3ef28c0f3e05027cU, 0x3f2837d93efe4883U, 0x3ec39a3d3e62e61eU, 0x3f3fb0c13ecf56b2U,
  0x3eac21553e728c0fU, 0x3f4978783ec783baU, 0x3ecb6d363e14a86cU, 0x3f39d2873ef28c0fU,
  0x3edefca23e62e61eU, 0x3f31ff8f3ef6758bU, 0x3ef28c0f3e2c2155U, 0x3f2837d93f08ebf8U,
  0x3ec39a3d3e85027cU, 0x3f3fb0c13ee2e61eU, 0x3eac21553e90bef0U, 0x3f4978783edb1326U,
  0x3ecb6d363e439a3dU, 0x3f39d2873f05027cU, 0x3edefca23e88ebf8U, 0x3f31ff8f3f06f73aU,
  0x3ef28c0f3e5b1326U, 0x3f2837d93f14a86cU, 0x3ec39a3d3e9c7b64U, 0x3f3fb0c13efa5f07U,
  0x3eac21553ea44e5dU, 0x3f4978783ef28c0fU, 0x3ecb6d363e6ab917U, 0x3f39d2873f0eca32U,
  0x3edefca23e9c7b64U, 0x3f31ff8f3f10bef0U, 0x3ef28c0f3e811900U, 0x3f2837d93f1e7022U,
  0x3ec39a3d3eb00ad1U, 0x3f3fb0c13f06f73aU, 0x3eac21553eb7ddc9U, 0x3f4978783f030dbeU,
  0x3ecb6d363e8cd574U, 0x3f39d2873f1a86a6U, 0x3edefca23eb3f44dU, 0x3f31ff8f3f1c7b64U,
  0x3ef28c0f3e9891e8U, 0x3f2837d93f2a2c97U, 0x3ec39a3d3ec783baU, 0x3f3fb0c13f12b3aeU,
  0x3eac21553ecf56b2U, 0x3f4978783f0eca32U, 0x3ecb6d363ea064e0U, 0x3f39d2873f244e5dU,
  0x3edefca23ec783baU, 0x3f31ff8f3f26431bU, 0x3ef28c0f3eac2155U, 0x3f2837d93f33f44dU,
  0x3ec39a3d3edb1326U, 0x3f3fb0c13f1c7b64U, 0x3eac21553ee2e61eU, 0x3f4978783f1891e8U,
  0x3ecb6d363eb7ddc9U, 0x3f39d2873f300ad1U, 0x3edefca23edefca2U, 0x3f31ff8f3f31ff8fU,
  0x3ef28c0f3ec39a3dU, 0x3f2837d93f3fb0c1U, 0x3ec39a3d3ef28c0fU, 0x3f3fb0c13f2837d9U,
  0x3eac21553efa5f07U, 0x3f4978783f22599fU, 0x3ecb6d363ecb6d36U, 0x3f39d2873f39d287U,
  0x3edefca23ef28c0fU, 0x3f31ff8f3f3bc745U, 0x3ef28c0f3ed729aaU, 0x3f2837d93f497878U,
  0x3ec39a3d3f030dbeU, 0x3f3fb0c13f31ff8fU, 0x3eac21553f06f73aU, 0x3f4978783f2e1613U,
  0x3ecb6d363edefca2U, 0x3f39d2873f458efcU, 0x3edefca23f05027cU, 0x3f31ff8f3f4783baU,
  0x3ef28c0f3eeab917U, 0x3f2837d93f5534ecU, 0x3ec39a3d3f0cd574U, 0x3f3fb0c13f3dbc03U,
  0x3eac21553f12b3aeU, 0x3f4978783f37ddc9U, 0x3ecb6d363ef6758bU, 0x3f39d2873f4f56b2U,
  0x3edefca23f0eca32U, 0x3f31ff8f3f514b70U, 0x3ef28c0f3f011900U, 0x3f2837d93f5efca2U,
  0x3ec39a3d3f1891e8U, 0x3f3fb0c13f4783baU, 0x3eac21553f1c7b64U, 0x3f4978783f439a3dU,
  0x3ecb6d363f05027cU, 0x3f39d2873f5b1326U, 0x3edefca23f1891e8U, 0x3f31ff8f3f5b1326U,
  0x3ef28c0f3f0ae0b6U, 0x3f2837d93f68c459U, 0x3ec39a3d3f22599fU, 0x3f3fb0c13f514b70U,
  0x3eac21553f2837d9U, 0x3f4978783f4d61f4U, 0x3ecb6d363f10bef0U, 0x3f39d2873f64dadcU,
  0x3edefca23f244e5dU, 0x3f31ff8f3f66cf9aU, 0x3ef28c0f3f169d2aU, 0x3f2837d93f7480cdU,
  0x3ec39a3d3f2e1613U, 0x3f3fb0c13f5d07e4U, 0x3eac21553f31ff8fU, 0x3f4978783f591e68U,
  0x3ecb6d363f1a86a6U, 0x3f39d2873f6ea293U, 0x3edefca23f2e1613U, 0x3f31ff8f3f709751U,
  0x3ef28c0f3f2064e0U, 0x3f2837d93f7e4883U, 0x3ec39a3d3f37ddc9U, 0x3f3fb0c13f66cf9aU,
  0x3eac21553f3dbc03U, 0x3f4978783f62e61eU, 0x3ecb6d363f26431bU, 0x3f39d2873f7a5f07U,
  0x3edefca23f39d287U, 0x3f31ff8f3f7c53c5U, 0x3ef28c0f3f2c2155U, 0x3f2837d93f85027cU,
  0x3ec39a3d3f439a3dU, 0x3f3fb0c13f728c0fU, 0x3eac21553f4783baU, 0x3f4978783f6ea293U,
  0x3ecb6d363f300ad1U, 0x3f39d2873f82135fU, 0x3edefca23f439a3dU, 0x3f31ff8f3f830dbeU,
  0x3ef28c0f3f35e90bU, 0x3f2837d93f89e657U, 0x3ec39a3d3f4d61f4U, 0x3f3fb0c13f7c53c5U,
  0x3eac21553f514b70U, 0x3f4978783f786a49U, 0x3ecb6d363f3bc745U, 0x3f39d2873f87f199U,
  0x3edefca23f4f56b2U, 0x3f31ff8f3f88ebf8U, 0x3ef28c0f3f41a57fU, 0x3f2837d93f8fc491U,
  0x3ec39a3d3f591e68U, 0x3f3fb0c13f84081dU, 0x3eac21553f5d07e4U, 0x3f4978783f82135fU,
  0x3ecb6d363f458efcU, 0x3f39d2873f8cd574U, 0x3edefca23f591e68U, 0x3f31ff8f3f8dcfd3U,
  0x3ef28c0f3f4b6d36U, 0x3f2837d93f94a86cU, 0x3ec39a3d3f62e61eU, 0x3f3fb0c13f88ebf8U,
  0x3eac21553f66cf9aU, 0x3f4978783f86f73aU, 0x3ecb6d363f514b70U, 0x3f39d2873f92b3aeU,
  0x3ef28c0fbddb1326U, 0x3f3bc7453e1c7b64U, 0x3f030dbebe244e5dU, 0x3f31ff8f3e53402eU,
  0x3ed729aabd8cd574U, 0x3f4978783deab917U, 0x3ec39a3dbd5b1326U, 0x3f5534ec3dcb6d36U,
  0x3edefca2be14a86cU, 0x3f458efc3e3bc745U, 0x3ef28c0fbd8cd574U, 0x3f3bc7453e439a3dU,
  0x3f030dbebdfa5f07U, 0x3f31ff8f3e7a5f07U, 0x3ed729aabcfa5f07U, 0x3f4978783e1c7b64U,
  0x3ec39a3dbc7a5f07U, 0x3f5534ec3e0cd574U, 0x3edefca2bdcb6d36U, 0x3f458efc3e6ab917U,
  0x3ef28c0fbcbbc745U, 0x3f3bc7453e728c0fU, 0x3f030dbebd9c7b64U, 0x3f31ff8f3e94a86cU,
  0x3ed729aa3c7a5f07U, 0x3f4978783e4b6d36U, 0x3ec39a3d3cfa5f07U, 0x3f5534ec3e33f44dU,
  0x3edefca2bd7a5f07U, 0x3f458efc3e88ebf8U, 0x3ef28c0f3c7a5f07U, 0x3f3bc7453e8cd574U,
  0x3f030dbebd1c7b64U, 0x3f31ff8f3ea837d9U, 0x3ed729aa3d5b1326U, 0x3f4978783e728c0fU,
  0x3ec39a3d3d8cd574U, 0x3f5534ec3e62e61eU, 0x3edefca2bcbbc745U, 0x3f458efc3ea064e0U,
  0x3ef28c0f3d7a5f07U, 0x3f3bc7453ea44e5dU, 0x3f030dbe00000000U, 0x3f31ff8f3ebfb0c1U,
  0x3ed729aa3dcb6d36U, 0x3f4978783e90bef0U, 0x3ec39a3d3deab917U, 0x3f5534ec3e85027cU,
  0x3edefca23cbbc745U, 0x3f458efc3eb3f44dU, 0x3ef28c0f3dcb6d36U, 0x3f3bc7453eb7ddc9U,
  0x3f030dbe3d3bc745U, 0x3f31ff8f3ed3402eU, 0x3ed729aa3e0cd574U, 0x3f4978783ea44e5dU,
  0x3ec39a3d3e1c7b64U, 0x3f5534ec3e9c7b64U, 0x3edefca23d7a5f07U, 0x3f458efc3ecb6d36U,
  0x3ef28c0f3e0cd574U, 0x3f3bc7453ecb6d36U, 0x3f030dbe3dac2155U, 0x3f31ff8f3eeab917U,
  0x3ed729aa3e33f44dU, 0x3f4978783eb7ddc9U, 0x3ec39a3d3e4b6d36U, 0x3f5534ec3eb00ad1U,
  0x3edefca23ddb1326U, 0x3f458efc3edefca2U, 0x3ef28c0f3e3bc745U, 0x3f3bc7453ee2e61eU,
  0x3f030dbe3e05027cU, 0x3f31ff8f3efe4883U, 0x3ed729aa3e62e61eU, 0x3f4978783ecf56b2U,
  0x3ec39a3d3e728c0fU, 0x3f5534ec3ec783baU, 0x3edefca23e14a86cU, 0x3f458efc3ef28c0fU,
  0x3ef28c0f3e62e61eU, 0x3f3bc7453ef6758bU, 0x3f030dbe3e2c2155U, 0x3f31ff8f3f08ebf8U,
  0x3ed729aa3e85027cU, 0x3f4978783ee2e61eU, 0x3ec39a3d3e90bef0U, 0x3f5534ec3edb1326U,
  0x3edefca23e439a3dU, 0x3f458efc3f05027cU, 0x3ef28c0f3e88ebf8U, 0x3f3bc7453f06f73aU,
  0x3f030dbe3e5b1326U, 0x3f31ff8f3f14a86cU, 0x3ed729aa3e9c7b64U, 0x3f4978783efa5f07U,
  0x3ec39a3d3ea44e5dU, 0x3f5534ec3ef28c0fU, 0x3edefca23e6ab917U, 0x3f458efc3f0eca32U,
  0x3ef28c0f3e9c7b64U, 0x3f3bc7453f10bef0U, 0x3f030dbe3e811900U, 0x3f31ff8f3f1e7022U,
  0x3ed729aa3eb00ad1U, 0x3f4978783f06f73aU, 0x3ec39a3d3eb7ddc9U, 0x3f5534ec3f030dbeU,
  0x3edefca23e8cd574U, 0x3f458efc3f1a86a6U, 0x3ef28c0f3eb3f44dU, 0x3f3bc7453f1c7b64U,
  0x3f030dbe3e9891e8U, 0x3f31ff8f3f2a2c97U, 0x3ed729aa3ec783baU, 0x3f4978783f12b3aeU,
  0x3ec39a3d3ecf56b2U, 0x3f5534ec3f0eca32U, 0x3edefca23ea064e0U, 0x3f458efc3f244e5dU,
  0x3ef28c0f3ec783baU, 0x3f3bc7453f26431bU, 0x3f030dbe3eac2155U, 0x3f31ff8f3f33f44dU,
  0x3ed729aa3edb1326U, 0x3f4978783f1c7b64U, 0x3ec39a3d3ee2e61eU, 0x3f5534ec3f1891e8U,
  0x3edefca23eb7ddc9U, 0x3f458efc3f300ad1U, 0x3ef28c0f3edefca2U, 0x3f3bc7453f31ff8fU,
  0x3f030dbe3ec39a3dU, 0x3f31ff8f3f3fb0c1U, 0x3ed729aa3ef28c0fU, 0x3f4978783f2837d9U,
  0x3ec39a3d3efa5f07U, 0x3f5534ec3f22599fU, 0x3edefca23ecb6d36U, 0x3f458efc3f39d287U,
  0x3ef28c0f3ef28c0fU, 0x3f3bc7453f3bc745U, 0x3f030dbe3ed729aaU, 0x3f31ff8f3f497878U,
  0x3ed729aa3f030dbeU, 0x3f4978783f31ff8fU, 0x3ec39a3d3f06f73aU, 0x3f5534ec3f2e1613U,
  0x3edefca23edefca2U, 0x3f458efc3f458efcU, 0x3ef28c0f3f05027cU, 0x3f3bc7453f4783baU,
  0x3f030dbe3eeab917U, 0x3f31ff8f3f5534ecU, 0x3ed729aa3f0cd574U, 0x3f4978783f3dbc03U,
  0x3ec39a3d3f12b3aeU, 0x3f5534ec3f37ddc9U, 0x3edefca23ef6758bU, 0x3f458efc3f4f56b2U,
  0x3ef28c0f3f0eca32U, 0x3f3bc7453f514b70U, 0x3f030dbe3f011900U, 0x3f31ff8f3f5efca2U,
  0x3ed729aa3f1891e8U, 0x3f4978783f4783baU, 0x3ec39a3d3f1c7b64U, 0x3f5534ec3f439a3dU,
  0x3edefca23f05027cU, 0x3f458efc3f5b1326U, 0x3ef28c0f3f1891e8U, 0x3f3bc7453f5b1326U,
  0x3f030dbe3f0ae0b6U, 0x3f31ff8f3f68c459U, 0x3ed729aa3f22599fU, 0x3f4978783f514b70U,
  0x3ec39a3d3f2837d9U, 0x3f5534ec3f4d61f4U, 0x3edefca23f10bef0U, 0x3f458efc3f64dadcU,
  0x3ef28c0f3f244e5dU, 0x3f3bc7453f66cf9aU, 0x3f030dbe3f169d2aU, 0x3f31ff8f3f7480cdU,
  0x3ed729aa3f2e1613U, 0x3f4978783f5d07e4U, 0x3ec39a3d3f31ff8fU, 0x3f5534ec3f591e68U,
  0x3edefca23f1a86a6U, 0x3f458efc3f6ea293U, 0x3ef28c0f3f2e1613U, 0x3f3bc7453f709751U,
  0x3f030dbe3f2064e0U, 0x3f31ff8f3f7e4883U, 0x3ed729aa3f37ddc9U, 0x3f4978783f66cf9aU,
  0x3ec39a3d3f3dbc03U, 0x3f5534ec3f62e61eU, 0x3edefca23f26431bU, 0x3f458efc3f7a5f07U,
  0x3ef28c0f3f39d287U, 0x3f3bc7453f7c53c5U, 0x3f030dbe3f2c2155U, 0x3f31ff8f3f85027cU,
  0x3ed729aa3f439a3dU, 0x3f4978783f728c0fU, 0x3ec39a3d3f4783baU, 0x3f5534ec3f6ea293U,
  0x3edefca23f300ad1U, 0x3f458efc3f82135fU, 0x3ef28c0f3f439a3dU, 0x3f3bc7453f830dbeU,
  0x3f030dbe3f35e90bU, 0x3f31ff8f3f89e657U, 0x3ed729aa3f4d61f4U, 0x3f4978783f7c53c5U,
  0x3ec39a3d3f514b70U, 0x3f5534ec3f786a49U, 0x3edefca23f3bc745U, 0x3f458efc3f87f199U,
  0x3ef28c0f3f4f56b2U, 0x3f3bc7453f88ebf8U, 0x3f030dbe3f41a57fU, 0x3f31ff8f3f8fc491U,
  0x3ed729aa3f591e68U, 0x3f4978783f84081dU, 0x3ec39a3d3f5d07e4U, 0x3f5534ec3f82135fU,
  0x3edefca23f458efcU, 0x3f458efc3f8cd574U, 0x3ef28c0f3f591e68U, 0x3f3bc7453f8dcfd3U,
  0x3f030dbe3f4b6d36U, 0x3f31ff8f3f94a86cU, 0x3ed729aa3f62e61eU, 0x3f4978783f88ebf8U,
  0x3ec39a3d3f66cf9aU, 0x3f5534ec3f86f73aU, 0x3edefca23f514b70U, 0x3f458efc3f92b3aeU,
  0x3f05027cbddb1326U, 0x3f4783ba3e1c7b64U, 0x3f0cd574be244e5dU, 0x3f3dbc033e53402eU,
  0x3eeab917bd8cd574U, 0x3f5534ec3deab917U, 0x3ed729aabd5b1326U, 0x3f5efca23dcb6d36U,
  0x3ef6758bbe14a86cU, 0x3f4f56b23e3bc745U, 0x3f05027cbd8cd574U, 0x3f4783ba3e439a3dU,
  0x3f0cd574bdfa5f07U, 0x3f3dbc033e7a5f07U, 0x3eeab917bcfa5f07U, 0x3f5534ec3e1c7b64U,
  0x3ed729aabc7a5f07U, 0x3f5efca23e0cd574U, 0x3ef6758bbdcb6d36U, 0x3f4f56b23e6ab917U,
  0x3f05027cbcbbc745U, 0x3f4783ba3e728c0fU, 0x3f0cd574bd9c7b64U, 0x3f3dbc033e94a86cU,
  0x3eeab9173c7a5f07U, 0x3f5534ec3e4b6d36U, 0x3ed729aa3cfa5f07U, 0x3f5efca23e33f44dU,
  0x3ef6758bbd7a5f07U, 0x3f4f56b23e88ebf8U, 0x3f05027c3c7a5f07U, 0x3f4783ba3e8cd574U,
  0x3f0cd574bd1c7b64U, 0x3f3dbc033ea837d9U, 0x3eeab9173d5b1326U, 0x3f5534ec3e728c0fU,
  0x3ed729aa3d8cd574U, 0x3f5efca23e62e61eU, 0x3ef6758bbcbbc745U, 0x3f4f56b23ea064e0U,
  0x3f05027c3d7a5f07U, 0x3f4783ba3ea44e5dU, 0x3f0cd57400000000U, 0x3f3dbc033ebfb0c1U,
  0x3eeab9173dcb6d36U, 0x3f5534ec3e90bef0U, 0x3ed729aa3deab917U, 0x3f5efca23e85027cU,
  0x3ef6758b3cbbc745U, 0x3f4f56b23eb3f44dU, 0x3f05027c3dcb6d36U, 0x3f4783ba3eb7ddc9U,
  0x3f0cd5743d3bc745U, 0x3f3dbc033ed3402eU, 0x3eeab9173e0cd574U, 0x3f5534ec3ea44e5dU,
  0x3ed729aa3e1c7b64U, 0x3f5efca23e9c7b64U, 0x3ef6758b3d7a5f07U, 0x3f4f56b23ecb6d36U,
  0x3f05027c3e0cd574U, 0x3f4783ba3ecb6d36U, 0x3f0cd5743dac2155U, 0x3f3dbc033eeab917U,
  0x3eeab9173e33f44dU, 0x3f5534ec3eb7ddc9U, 0x3ed729aa3e4b6d36U, 0x3f5efca23eb00ad1U,
  0x3ef6758b3ddb1326U, 0x3f4f56b23edefca2U, 0x3f05027c3e3bc745U, 0x3f4783ba3ee2e61eU,
  0x3f0cd5743e05027cU, 0x3f3dbc033efe4883U, 0x3eeab9173e62e61eU, 0x3f5534ec3ecf56b2U,
  0x3ed729aa3e728c0fU, 0x3f5efca23ec783baU, 0x3ef6758b3e14a86cU, 0x3f4f56b23ef28c0fU,
  0x3f05027c3e62e61eU, 0x3f4783ba3ef6758bU, 0x3f0cd5743e2c2155U, 0x3f3dbc033f08ebf8U,
  0x3eeab9173e85027cU, 0x3f5534ec3ee2e61eU, 0x3ed729aa3e90bef0U, 0x3f5efca23edb1326U,
  0x3ef6758b3e439a3dU, 0x3f4f56b23f05027cU, 0x3f05027c3e88ebf8U, 0x3f4783ba3f06f73aU,
  0x3f0cd5743e5b1326U, 0x3f3dbc033f14a86cU, 0x3eeab9173e9c7b64U, 0x3f5534ec3efa5f07U,
  0x3ed729aa3ea44e5dU, 0x3f5efca23ef28c0fU, 0x3ef6758b3e6ab917U, 0x3f4f56b23f0eca32U,
  0x3f05027c3e9c7b64U, 0x3f4783ba3f10bef0U, 0x3f0cd5743e811900U, 0x3f3dbc033f1e7022U,
  0x3eeab9173eb00ad1U, 0x3f5534ec3f06f73aU, 0x3ed729aa3eb7ddc9U, 0x3f5efca23f030dbeU,
  0x3ef6758b3e8cd574U, 0x3f4f56b23f1a86a6U, 0x3f05027c3eb3f44dU, 0x3f4783ba3f1c7b64U,
  0x3f0cd5743e9891e8U, 0x3f3dbc033f2a2c97U, 0x3eeab9173ec783baU, 0x3f5534ec3f12b3aeU,
  0x3ed729aa3ecf56b2U, 0x3f5efca23f0eca32U, 0x3ef6758b3ea064e0U, 0x3f4f56b23f244e5dU,
  0x3f05027c3ec783baU, 0x3f4783ba3f26431bU, 0x3f0cd5743eac2155U, 0x3f3dbc033f33f44dU,
  0x3eeab9173edb1326U, 0x3f5534ec3f1c7b64U, 0x3ed729aa3ee2e61eU, 0x3f5efca23f1891e8U,
  0x3ef6758b3eb7ddc9U, 0x3f4f56b23f300ad1U, 0x3f05027c3edefca2U, 0x3f4783ba3f31ff8fU,
  0x3f0cd5743ec39a3dU, 0x3f3dbc033f3fb0c1U, 0x3eeab9173ef28c0fU, 0x3f5534ec3f2837d9U,
  0x3ed729aa3efa5f07U, 0x3f5efca23f22599fU, 0x3ef6758b3ecb6d36U, 0x3f4f56b23f39d287U,
  0x3f05027c3ef28c0fU, 0x3f4783ba3f3bc745U, 0x3f0cd5743ed729aaU, 0x3f3dbc033f497878U,
  0x3eeab9173f030dbeU, 0x3f5534ec3f31ff8fU, 0x3ed729aa3f06f73aU, 0x3f5efca23f2e1613U,
  0x3ef6758b3edefca2U, 0x3f4f56b23f458efcU, 0x3f05027c3f05027cU, 0x3f4783ba3f4783baU,
  0x3f0cd5743eeab917U, 0x3f3dbc033f5534ecU, 0x3eeab9173f0cd574U, 0x3f5534ec3f3dbc03U,
  0x3ed729aa3f12b3aeU, 0x3f5efca23f37ddc9U, 0x3ef6758b3ef6758bU, 0x3f4f56b23f4f56b2U,
  0x3f05027c3f0eca32U, 0x3f4783ba3f514b70U, 0x3f0cd5743f011900U, 0x3f3dbc033f5efca2U,
  0x3eeab9173f1891e8U, 0x3f5534ec3f4783baU, 0x3ed729aa3f1c7b64U, 0x3f5efca23f439a3dU,
  0x3ef6758b3f05027cU, 0x3f4f56b23f5b1326U, 0x3f05027c3f1891e8U, 0x3f4783ba3f5b1326U,
  0x3f0cd5743f0ae0b6U, 0x3f3dbc033f68c459U, 0x3eeab9173f22599fU, 0x3f5534ec3f514b70U,
  0x3ed729aa3f2837d9U, 0x3f5efca23f4d61f4U, 0x3ef6758b3f10bef0U, 0x3f4f56b23f64dadcU,
  0x3f05027c3f244e5dU, 0x3f4783ba3f66cf9aU, 0x3f0cd5743f169d2aU, 0x3f3dbc033f7480cdU,
  0x3eeab9173f2e1613U, 0x3f5534ec3f5d07e4U, 0x3ed729aa3f31ff8fU, 0x3f5efca23f591e68U,
  0x3ef6758b3f1a86a6U, 0x3f4f56b23f6ea293U, 0x3f05027c3f2e1613U, 0x3f4783ba3f709751U,
  0x3f0cd5743f2064e0U, 0x3f3dbc033f7e4883U, 0x3eeab9173f37ddc9U, 0x3f5534ec3f66cf9aU,
  0x3ed729aa3f3dbc03U, 0x3f5efca23f62e61eU, 0x3ef6758b3f26431bU, 0x3f4f56b23f7a5f07U,
  0x3f05027c3f39d287U, 0x3f4783ba3f7c53c5U, 0x3f0cd5743f2c2155U, 0x3f3dbc033f85027cU,
  0x3eeab9173f439a3dU, 0x3f5534ec3f728c0fU, 0x3ed729aa3f4783baU, 0x3f5efca23f6ea293U,
  0x3ef6758b3f300ad1U, 0x3f4f56b23f82135fU, 0x3f05027c3f439a3dU, 0x3f4783ba3f830dbeU,
  0x3f0cd5743f35e90bU, 0x3f3dbc033f89e657U, 0x3eeab9173f4d61f4U, 0x3f5534ec3f7c53c5U,
  0x3ed729aa3f514b70U, 0x3f5efca23f786a49U, 0x3ef6758b3f3bc745U, 0x3f4f56b23f87f199U,
  0x3f05027c3f4f56b2U, 0x3f4783ba3f88ebf8U, 0x3f0cd5743f41a57fU, 0x3f3dbc033f8fc491U,
  0x3eeab9173f591e68U, 0x3f5534ec3f84081dU, 0x3ed729aa3f5d07e4U, 0x3f5efca23f82135fU,
  0x3ef6758b3f458efcU, 0x3f4f56b23f8cd574U, 0x3f05027c3f591e68U, 0x3f4783ba3f8dcfd3U,
  0x3f0cd5743f4b6d36U, 0x3f3dbc033f94a86cU, 0x3eeab9173f62e61eU, 0x3f5534ec3f88ebf8U,
  0x3ed729aa3f66cf9aU, 0x3f5efca23f86f73aU, 0x3ef6758b3f514b70U, 0x3f4f56b23f92b3aeU,
  0x3f0eca32bddb1326U, 0x3f514b703e1c7b64U, 0x3f1891e8be244e5dU, 0x3f4783ba3e53402eU,
  0x3f011900bd8cd574U, 0x3f5efca23deab917U, 0x3eeea293bd5b1326U, 0x3f68c4593dcb6d36U,
  0x3f05027cbe14a86cU, 0x3f5b13263e3bc745U, 0x3f0eca32bd8cd574U, 0x3f514b703e439a3dU,
  0x3f1891e8bdfa5f07U, 0x3f4783ba3e7a5f07U, 0x3f011900bcfa5f07U, 0x3f5efca23e1c7b64U,
  0x3eeea293bc7a5f07U, 0x3f68c4593e0cd574U, 0x3f05027cbdcb6d36U, 0x3f5b13263e6ab917U,
  0x3f0eca32bcbbc745U, 0x3f514b703e728c0fU, 0x3f1891e8bd9c7b64U, 0x3f4783ba3e94a86cU,
  0x3f0119003c7a5f07U, 0x3f5efca23e4b6d36U, 0x3eeea2933cfa5f07U, 0x3f68c4593e33f44dU,
  0x3f05027cbd7a5f07U, 0x3f5b13263e88ebf8U, 0x3f0eca323c7a5f07U, 0x3f514b703e8cd574U,
  0x3f1891e8bd1c7b64U, 0x3f4783ba3ea837d9U, 0x3f0119003d5b1326U, 0x3f5efca23e728c0fU,
  0x3eeea2933d8cd574U, 0x3f68c4593e62e61eU, 0x3f05027cbcbbc745U, 0x3f5b13263ea064e0U,
  0x3f0eca323d7a5f07U, 0x3f514b703ea44e5dU, 0x3f1891e800000000U, 0x3f4783ba3ebfb0c1U,
  0x3f0119003dcb6d36U, 0x3f5efca23e90bef0U, 0x3eeea2933deab917U, 0x3f68c4593e85027cU,
  0x3f05027c3cbbc745U, 0x3f5b13263eb3f44dU, 0x3f0eca323dcb6d36U, 0x3f514b703eb7ddc9U,
  0x3f1891e83d3bc745U, 0x3f4783ba3ed3402eU, 0x3f0119003e0cd574U, 0x3f5efca23ea44e5dU,
  0x3eeea2933e1c7b64U, 0x3f68c4593e9c7b64U, 0x3f05027c3d7a5f07U, 0x3f5b13263ecb6d36U,
  0x3f0eca323e0cd574U, 0x3f514b703ecb6d36U, 0x3f1891e83dac2155U, 0x3f4783ba3eeab917U,
  0x3f0119003e33f44dU, 0x3f5efca23eb7ddc9U, 0x3eeea2933e4b6d36U, 0x3f68c4593eb00ad1U,
  0x3f05027c3ddb1326U, 0x3f5b13263edefca2U, 0x3f0eca323e3bc745U, 0x3f514b703ee2e61eU,
  0x3f1891e83e05027cU, 0x3f4783ba3efe4883U, 0x3f0119003e62e61eU, 0x3f5efca23ecf56b2U,
  0x3eeea2933e728c0fU, 0x3f68c4593ec783baU, 0x3f05027c3e14a86cU, 0x3f5b13263ef28c0fU,
  0x3f0eca323e62e61eU, 0x3f514b703ef6758bU, 0x3f1891e83e2c2155U, 0x3f4783ba3f08ebf8U,
  0x3f0119003e85027cU, 0x3f5efca23ee2e61eU, 0x3eeea2933e90bef0U, 0x3f68c4593edb1326U,
  0x3f05027c3e439a3dU, 0x3f5b13263f05027cU, 0x3f0eca323e88ebf8U, 0x3f514b703f06f73aU,
  0x3f1891e83e5b1326U, 0x3f4783ba3f14a86cU, 0x3f0119003e9c7b64U, 0x3f5efca23efa5f07U,
  0x3eeea2933ea44e5dU, 0x3f68c4593ef28c0fU, 0x3f05027c3e6ab917U, 0x3f5b13263f0eca32U,
  0x3f0eca323e9c7b64U, 0x3f514b703f10bef0U, 0x3f1891e83e811900U, 0x3f4783ba3f1e7022U,
  0x3f0119003eb00ad1U, 0x3f5efca23f06f73aU, 0x3eeea2933eb7ddc9U, 0x3f68c4593f030dbeU,
  0x3f05027c3e8cd574U, 0x3f5b13263f1a86a6U, 0x3f0eca323eb3f44dU, 0x3f514b703f1c7b64U,
  0x3f1891e83e9891e8U, 0x3f4783ba3f2a2c97U, 0x3f0119003ec783baU, 0x3f5efca23f12b3aeU,
  0x3eeea2933ecf56b2U, 0x3f68c4593f0eca32U, 0x3f05027c3ea064e0U, 0x3f5b13263f244e5dU,
  0x3f0eca323ec783baU, 0x3f514b703f26431bU, 0x3f1891e83eac2155U, 0x3f4783ba3f33f44dU,
  0x3f0119003edb1326U, 0x3f5efca23f1c7b64U, 0x3eeea2933ee2e61eU, 0x3f68c4593f1891e8U,
  0x3f05027c3eb7ddc9U, 0x3f5b13263f300ad1U, 0x3f0eca323edefca2U, 0x3f514b703f31ff8fU,
  0x3f1891e83ec39a3dU, 0x3f4783ba3f3fb0c1U, 0x3f0119003ef28c0fU, 0x3f5efca23f2837d9U,
  0x3eeea2933efa5f07U, 0x3f68c4593f22599fU, 0x3f05027c3ecb6d36U, 0x3f5b13263f39d287U,
  0x3f0eca323ef28c0fU, 0x3f514b703f3bc745U, 0x3f1891e83ed729aaU, 0x3f4783ba3f497878U,
  0x3f0119003f030dbeU, 0x3f5efca23f31ff8fU, 0x3eeea2933f06f73aU, 0x3f68c4593f2e1613U,
  0x3f05027c3edefca2U, 0x3f5b13263f458efcU, 0x3f0eca323f05027cU, 0x3f514b703f4783baU,
  0x3f1891e83eeab917U, 0x3f4783ba3f5534ecU, 0x3f0119003f0cd574U, 0x3f5efca23f3dbc03U,
  0x3eeea2933f12b3aeU, 0x3f68c4593f37ddc9U, 0x3f05027c3ef6758bU, 0x3f5b13263f4f56b2U,
  0x3f0eca323f0eca32U, 0x3f514b703f514b70U, 0x3f1891e83f011900U, 0x3f4783ba3f5efca2U,
  0x3f0119003f1891e8U, 0x3f5efca23f4783baU, 0x3eeea2933f1c7b64U, 0x3f68c4593f439a3dU,
  0x3f05027c3f05027cU, 0x3f5b13263f5b1326U, 0x3f0eca323f1891e8U, 0x3f514b703f5b1326U,
  0x3f1891e83f0ae0b6U, 0x3f4783ba3f68c459U, 0x3f0119003f22599fU, 0x3f5efca23f514b70U,
  0x3eeea2933f2837d9U, 0x3f68c4593f4d61f4U, 0x3f05027c3f10bef0U, 0x3f5b13263f64dadcU,
  0x3f0eca323f244e5dU, 0x3f514b703f66cf9aU, 0x3f1891e83f169d2aU, 0x3f4783ba3f7480cdU,
  0x3f0119003f2e1613U, 0x3f5efca23f5d07e4U, 0x3eeea2933f31ff8fU, 0x3f68c4593f591e68U,
  0x3f05027c3f1a86a6U, 0x3f5b13263f6ea293U, 0x3f0eca323f2e1613U, 0x3f514b703f709751U,
  0x3f1891e83f2064e0U, 0x3f4783ba3f7e4883U, 0x3f0119003f37ddc9U, 0x3f5efca23f66cf9aU,
  0x3eeea2933f3dbc03U, 0x3f68c4593f62e61eU, 0x3f05027c3f26431bU, 0x3f5b13263f7a5f07U,
  0x3f0eca323f39d287U, 0x3f514b703f7c53c5U, 0x3f1891e83f2c2155U, 0x3f4783ba3f85027cU,
  0x3f0119003f439a3dU, 0x3f5efca23f728c0fU, 0x3eeea2933f4783baU, 0x3f68c4593f6ea293U,
  0x3f05027c3f300ad1U, 0x3f5b13263f82135fU, 0x3f0eca323f439a3dU, 0x3f514b703f830dbeU,
  0x3f1891e83f35e90bU, 0x3f4783ba3f89e657U, 0x3f0119003f4d61f4U, 0x3f5efca23f7c53c5U,
  0x3eeea2933f514b70U, 0x3f68c4593f786a49U, 0x3f05027c3f3bc745U, 0x3f5b13263f87f199U,
  0x3f0eca323f4f56b2U, 0x3f514b703f88ebf8U, 0x3f1891e83f41a57fU, 0x3f4783ba3f8fc491U,
  0x3f0119003f591e68U, 0x3f5efca23f84081dU, 0x3eeea2933f5d07e4U, 0x3f68c4593f82135fU,
  0x3f05027c3f458efcU, 0x3f5b13263f8cd574U, 0x3f0eca323f591e68U, 0x3f514b703f8dcfd3U,
  0x3f1891e83f4b6d36U, 0x3f4783ba3f94a86cU, 0x3f0119003f62e61eU, 0x3f5efca23f88ebf8U,
  0x3eeea2933f66cf9aU, 0x3f68c4593f86f73aU, 0x3f05027c3f514b70U, 0x3f5b13263f92b3aeU,
  0x3f1891e8bddb1326U, 0x3f5b13263e1c7b64U, 0x3f22599fbe244e5dU, 0x3f514b703e53402eU,
  0x3f0ae0b6bd8cd574U, 0x3f68c4593deab917U, 0x3f011900bd5b1326U, 0x3f7480cd3dcb6d36U,
  0x3f10bef0be14a86cU, 0x3f64dadc3e3bc745U, 0x3f1891e8bd8cd574U, 0x3f5b13263e439a3dU,
  0x3f22599fbdfa5f07U, 0x3f514b703e7a5f07U, 0x3f0ae0b6bcfa5f07U, 0x3f68c4593e1c7b64U,
  0x3f011900bc7a5f07U, 0x3f7480cd3e0cd574U, 0x3f10bef0bdcb6d36U, 0x3f64dadc3e6ab917U,
  0x3f1891e8bcbbc745U, 0x3f5b13263e728c0fU, 0x3f22599fbd9c7b64U, 0x3f514b703e94a86cU,
  0x3f0ae0b63c7a5f07U, 0x3f68c4593e4b6d36U, 0x3f0119003cfa5f07U, 0x3f7480cd3e33f44dU,
  0x3f10bef0bd7a5f07U, 0x3f64dadc3e88ebf8U, 0x3f1891e83c7a5f07U, 0x3f5b13263e8cd574U,
  0x3f22599fbd1c7b64U, 0x3f514b703ea837d9U, 0x3f0ae0b63d5b1326U, 0x3f68c4593e728c0fU,
  0x3f0119003d8cd574U, 0x3f7480cd3e62e61eU, 0x3f10bef0bcbbc745U, 0x3f64dadc3ea064e0U,
  0x3f1891e83d7a5f07U, 0x3f5b13263ea44e5dU, 0x3f22599f00000000U, 0x3f514b703ebfb0c1U,
  0x3f0ae0b63dcb6d36U, 0x3f68c4593e90bef0U, 0x3f0119003deab917U, 0x3f7480cd3e85027cU,
  0x3f10bef03cbbc745U, 0x3f64dadc3eb3f44dU, 0x3f1891e83dcb6d36U, 0x3f5b13263eb7ddc9U,
  0x3f22599f3d3bc745U, 0x3f514b703ed3402eU, 0x3f0ae0b63e0cd574U, 0x3f68c4593ea44e5dU,
  0x3f0119003e1c7b64U, 0x3f7480cd3e9c7b64U, 0x3f10bef03d7a5f07U, 0x3f64dadc3ecb6d36U,
  0x3f1891e83e0cd574U, 0x3f5b13263ecb6d36U, 0x3f22599f3dac2155U, 0x3f514b703eeab917U,
  0x3f0ae0b63e33f44dU, 0x3f68c4593eb7ddc9U, 0x3f0119003e4b6d36U, 0x3f7480cd3eb00ad1U,
  0x3f10bef03ddb1326U, 0x3f64dadc3edefca2U, 0x3f1891e83e3bc745U, 0x3f5b13263ee2e61eU,
  0x3f22599f3e05027cU, 0x3f514b703efe4883U, 0x3f0ae0b63e62e61eU, 0x3f68c4593ecf56b2U,
  0x3f0119003e728c0fU, 0x3f7480cd3ec783baU, 0x3f10bef03e14a86cU, 0x3f64dadc3ef28c0fU,
  0x3f1891e83e62e61eU, 0x3f5b13263ef6758bU, 0x3f22599f3e2c2155U, 0x3f514b703f08ebf8U,
  0x3f0ae0b63e85027cU, 0x3f68c4593ee2e61eU, 0x3f0119003e90bef0U, 0x3f7480cd3edb1326U,
  0x3f10bef03e439a3dU, 0x3f64dadc3f05027cU, 0x3f1891e83e88ebf8U, 0x3f5b13263f06f73aU,
  0x3f22599f3e5b1326U, 0x3f514b703f14a86cU, 0x3f0ae0b63e9c7b64U, 0x3f68c4593efa5f07U,
  0x3f0119003ea44e5dU, 0x3f7480cd3ef28c0fU, 0x3f10bef03e6ab917U, 0x3f64dadc3f0eca32U,
  0x3f1891e83e9c7b64U, 0x3f5b13263f10bef0U, 0x3f22599f3e811900U, 0x3f514b703f1e7022U,
  0x3f0ae0b63eb00ad1U, 0x3f68c4593f06f73aU, 0x3f0119003eb7ddc9U, 0x3f7480cd3f030dbeU,
  0x3f10bef03e8cd574U, 0x3f64dadc3f1a86a6U, 0x3f1891e83eb3f44dU, 0x3f5b13263f1c7b64U,
  0x3f22599f3e9891e8U, 0x3f514b703f2a2c97U, 0x3f0ae0b63ec783baU, 0x3f68c4593f12b3aeU,
  0x3f0119003ecf56b2U, 0x3f7480cd3f0eca32U, 0x3f10bef03ea064e0U, 0x3f64dadc3f244e5dU,
  0x3f1891e83ec783baU, 0x3f5b13263f26431bU, 0x3f22599f3eac2155U, 0x3f514b703f33f44dU,
  0x3f0ae0b63edb1326U, 0x3f68c4593f1c7b64U, 0x3f0119003ee2e61eU, 0x3f7480cd3f1891e8U,
  0x3f10bef03eb7ddc9U, 0x3f64dadc3f300ad1U, 0x3f1891e83edefca2U, 0x3f5b13263f31ff8fU,
  0x3f22599f3ec39a3dU, 0x3f514b703f3fb0c1U, 0x3f0ae0b63ef28c0fU, 0x3f68c4593f2837d9U,
  0x3f0119003efa5f07U, 0x3f7480cd3f22599fU, 0x3f10bef03ecb6d36U, 0x3f64dadc3f39d287U,
  0x3f1891e83ef28c0fU, 0x3f5b13263f3bc745U, 0x3f22599f3ed729aaU, 0x3f514b703f497878U,
  0x3f0ae0b63f030dbeU, 0x3f68c4593f31ff8fU, 0x3f0119003f06f73aU, 0x3f7480cd3f2e1613U,
  0x3f10bef03edefca2U, 0x3f64dadc3f458efcU, 0x3f1891e83f05027cU, 0x3f5b13263f4783baU,
  0x3f22599f3eeab917U, 0x3f514b703f5534ecU, 0x3f0ae0b63f0cd574U, 0x3f68c4593f3dbc03U,
  0x3f0119003f12b3aeU, 0x3f7480cd3f37ddc9U, 0x3f10bef03ef6758bU, 0x3f64dadc3f4f56b2U,
  0x3f1891e83f0eca32U, 0x3f5b13263f514b70U, 0x3f22599f3f011900U, 0x3f514b703f5efca2U,
  0x3f0ae0b63f1891e8U, 0x3f68c4593f4783baU, 0x3f0119003f1c7b64U, 0x3f7480cd3f439a3dU,
  0x3f10bef03f05027cU, 0x3f64dadc3f5b1326U, 0x3f1891e83f1891e8U, 0x3f5b13263f5b1326U,
  0x3f22599f3f0ae0b6U, 0x3f514b703f68c459U, 0x3f0ae0b63f22599fU, 0x3f68c4593f514b70U,
  0x3f0119003f2837d9U, 0x3f7480cd3f4d61f4U, 0x3f10bef03f10bef0U, 0x3f64dadc3f64dadcU,
  0x3f1891e83f244e5dU, 0x3f5b13263f66cf9aU, 0x3f22599f3f169d2aU, 0x3f514b703f7480cdU,
  0x3f0ae0b63f2e1613U, 0x3f68c4593f5d07e4U, 0x3f0119003f31ff8fU, 0x3f7480cd3f591e68U,
  0x3f10bef03f1a86a6U, 0x3f64dadc3f6ea293U, 0x3f1891e83f2e1613U, 0x3f5b13263f709751U,
  0x3f22599f3f2064e0U, 0x3f514b703f7e4883U, 0x3f0ae0b63f37ddc9U, 0x3f68c4593f66cf9aU,
  0x3f0119003f3dbc03U, 0x3f7480cd3f62e61eU, 0x3f10bef03f26431bU, 0x3f64dadc3f7a5f07U,
  0x3f1891e83f39d287U, 0x3f5b13263f7c53c5U, 0x3f22599f3f2c2155U, 0x3f514b703f85027cU,
  0x3f0ae0b63f439a3dU, 0x3f68c4593f728c0fU, 0x3f0119003f4783baU, 0x3f7480cd3f6ea293U,
  0x3f10bef03f300ad1U, 0x3f64dadc3f82135fU, 0x3f1891e83f439a3dU, 0x3f5b13263f830dbeU,
  0x3f22599f3f35e90bU, 0x3f514b703f89e657U, 0x3f0ae0b63f4d61f4U, 0x3f68c4593f7c53c5U,
  0x3f0119003f514b70U, 0x3f7480cd3f786a49U, 0x3f10bef03f3bc745U, 0x3f64dadc3f87f199U,
  0x3f1891e83f4f56b2U, 0x3f5b13263f88ebf8U, 0x3f22599f3f41a57fU, 0x3f514b703f8fc491U,
  0x3f0ae0b63f591e68U, 0x3f68c4593f84081dU, 0x3f0119003f5d07e4U, 0x3f7480cd3f82135fU,
  0x3f10bef03f458efcU, 0x3f64dadc3f8cd574U, 0x3f1891e83f591e68U, 0x3f5b13263f8dcfd3U,
  0x3f22599f3f4b6d36U, 0x3f514b703f94a86cU, 0x3f0ae0b63f62e61eU, 0x3f68c4593f88ebf8U,
  0x3f0119003f66cf9aU, 0x3f7480cd3f86f73aU, 0x3f10bef03f514b70U, 0x3f64dadc3f92b3aeU,
  0x3f244e5dbddb1326U, 0x3f66cf9a3e1c7b64U, 0x3f2e1613be244e5dU, 0x3f5d07e43e53402eU,
  0x3f169d2abd8cd574U, 0x3f7480cd3deab917U, 0x3f0ae0b6bd5b1326U, 0x3f7e48833dcb6d36U,
  0x3f1a86a6be14a86cU, 0x3f6ea2933e3bc745U, 0x3f244e5dbd8cd574U, 0x3f66cf9a3e439a3dU,
  0x3f2e1613bdfa5f07U, 0x3f5d07e43e7a5f07U, 0x3f169d2abcfa5f07U, 0x3f7480cd3e1c7b64U,
  0x3f0ae0b6bc7a5f07U, 0x3f7e48833e0cd574U, 0x3f1a86a6bdcb6d36U, 0x3f6ea2933e6ab917U,
  0x3f244e5dbcbbc745U, 0x3f66cf9a3e728c0fU, 0x3f2e1613bd9c7b64U, 0x3f5d07e43e94a86cU,
  0x3f169d2a3c7a5f07U, 0x3f7480cd3e4b6d36U, 0x3f0ae0b63cfa5f07U, 0x3f7e48833e33f44dU,
  0x3f1a86a6bd7a5f07U, 0x3f6ea2933e88ebf8U, 0x3f244e5d3c7a5f07U, 0x3f66cf9a3e8cd574U,
  0x3f2e1613bd1c7b64U, 0x3f5d07e43ea837d9U, 0x3f169d2a3d5b1326U, 0x3f7480cd3e728c0fU,
  0x3f0ae0b63d8cd574U, 0x3f7e48833e62e61eU, 0x3f1a86a6bcbbc745U, 0x3f6ea2933ea064e0U,
  0x3f244e5d3d7a5f07U, 0x3f66cf9a3ea44e5dU, 0x3f2e161300000000U, 0x3f5d07e43ebfb0c1U,
  0x3f169d2a3dcb6d36U, 0x3f7480cd3e90bef0U, 0x3f0ae0b63deab917U, 0x3f7e48833e85027cU,
  0x3f1a86a63cbbc745U, 0x3f6ea2933eb3f44dU, 0x3f244e5d3dcb6d36U, 0x3f66cf9a3eb7ddc9U,
  0x3f2e16133d3bc745U, 0x3f5d07e43ed3402eU, 0x3f169d2a3e0cd574U, 0x3f7480cd3ea44e5dU,
  0x3f0ae0b63e1c7b64U, 0x3f7e48833e9c7b64U, 0x3f1a86a63d7a5f07U, 0x3f6ea2933ecb6d36U,
  0x3f244e5d3e0cd574U, 0x3f66cf9a3ecb6d36U, 0x3f2e16133dac2155U, 0x3f5d07e43eeab917U,
  0x3f169d2a3e33f44dU, 0x3f7480cd3eb7ddc9U, 0x3f0ae0b63e4b6d36U, 0x3f7e48833eb00ad1U,
  0x3f1a86a63ddb1326U, 0x3f6ea2933edefca2U, 0x3f244e5d3e3bc745U, 0x3f66cf9a3ee2e61eU,
  0x3f2e16133e05027cU, 0x3f5d07e43efe4883U, 0x3f169d2a3e62e61eU, 0x3f7480cd3ecf56b2U,
  0x3f0ae0b63e728c0fU, 0x3f7e48833ec783baU, 0x3f1a86a63e14a86cU, 0x3f6ea2933ef28c0fU,
  0x3f244e5d3e62e61eU, 0x3f66cf9a3ef6758bU, 0x3f2e16133e2c2155U, 0x3f5d07e43f08ebf8U,
  0x3f169d2a3e85027cU, 0x3f7480cd3ee2e61eU, 0x3f0ae0b63e90bef0U, 0x3f7e48833edb1326U,
  0x3f1a86a63e439a3dU, 0x3f6ea2933f05027cU, 0x3f244e5d3e88ebf8U, 0x3f66cf9a3f06f73aU,
  0x3f2e16133e5b1326U, 0x3f5d07e43f14a86cU, 0x3f169d2a3e9c7b64U, 0x3f7480cd3efa5f07U,
  0x3f0ae0b63ea44e5dU, 0x3f7e48833ef28c0fU, 0x3f1a86a63e6ab917U, 0x3f6ea2933f0eca32U,
  0x3f244e5d3e9c7b64U, 0x3f66cf9a3f10bef0U, 0x3f2e16133e811900U, 0x3f5d07e43f1e7022U,
  0x3f169d2a3eb00ad1U, 0x3f7480cd3f06f73aU, 0x3f0ae0b63eb7ddc9U, 0x3f7e48833f030dbeU,
  0x3f1a86a63e8cd574U, 0x3f6ea2933f1a86a6U, 0x3f244e5d3eb3f44dU, 0x3f66cf9a3f1c7b64U,
  0x3f2e16133e9891e8U, 0x3f5d07e43f2a2c97U, 0x3f169d2a3ec783baU, 0x3f7480cd3f12b3aeU,
  0x3f0ae0b63ecf56b2U, 0x3f7e48833f0eca32U, 0x3f1a86a63ea064e0U, 0x3f6ea2933f244e5dU,
  0x3f244e5d3ec783baU, 0x3f66cf9a3f26431bU, 0x3f2e16133eac2155U, 0x3f5d07e43f33f44dU,
  0x3f169d2a3edb1326U, 0x3f7480cd3f1c7b64U, 0x3f0ae0b63ee2e61eU, 0x3f7e48833f1891e8U,
  0x3f1a86a63eb7ddc9U, 0x3f6ea2933f300ad1U, 0x3f244e5d3edefca2U, 0x3f66cf9a3f31ff8fU,
  0x3f2e16133ec39a3dU, 0x3f5d07e43f3fb0c1U, 0x3f169d2a3ef28c0fU, 0x3f7480cd3f2837d9U,
  0x3f0ae0b63efa5f07U, 0x3f7e48833f22599fU, 0x3f1a86a63ecb6d36U, 0x3f6ea2933f39d287U,
  0x3f244e5d3ef28c0fU, 0x3f66cf9a3f3bc745U, 0x3f2e16133ed729aaU, 0x3f5d07e43f497878U,
  0x3f169d2a3f030dbeU, 0x3f7480cd3f31ff8fU, 0x3f0ae0b63f06f73aU, 0x3f7e48833f2e1613U,
  0x3f1a86a63edefca2U, 0x3f6ea2933f458efcU, 0x3f244e5d3f05027cU, 0x3f66cf9a3f4783baU,
  0x3f2e16133eeab917U, 0x3f5d07e43f5534ecU, 0x3f169d2a3f0cd574U, 0x3f7480cd3f3dbc03U,
  0x3f0ae0b63f12b3aeU, 0x3f7e48833f37ddc9U, 0x3f1a86a63ef6758bU, 0x3f6ea2933f4f56b2U,
  0x3f244e5d3f0eca32U, 0x3f66cf9a3f514b70U, 0x3f2e16133f011900U, 0x3f5d07e43f5efca2U,
  0x3f169d2a3f1891e8U, 0x3f7480cd3f4783baU, 0x3f0ae0b63f1c7b64U, 0x3f7e48833f439a3dU,
  0x3f1a86a63f05027cU, 0x3f6ea2933f5b1326U, 0x3f244e5d3f1891e8U, 0x3f66cf9a3f5b1326U,
  0x3f2e16133f0ae0b6U, 0x3f5d07e43f68c459U, 0x3f169d2a3f22599fU, 0x3f7480cd3f514b70U,
  0x3f0ae0b63f2837d9U, 0x3f7e48833f4d61f4U, 0x3f1a86a63f10bef0U, 0x3f6ea2933f64dadcU,
  0x3f244e5d3f244e5dU, 0x3f66cf9a3f66cf9aU, 0x3f2e16133f169d2aU, 0x3f5d07e43f7480cdU,
  0x3f169d2a3f2e1613U, 0x3f7480cd3f5d07e4U, 0x3f0ae0b63f31ff8fU, 0x3f7e48833f591e68U,
  0x3f1a86a63f1a86a6U, 0x3f6ea2933f6ea293U, 0x3f244e5d3f2e1613U, 0x3f66cf9a3f709751U,
  0x3f2e16133f2064e0U, 0x3f5d07e43f7e4883U, 0x3f169d2a3f37ddc9U, 0x3f7480cd3f66cf9aU,
  0x3f0ae0b63f3dbc03U, 0x3f7e48833f62e61eU, 0x3f1a86a63f26431bU, 0x3f6ea2933f7a5f07U,
  0x3f244e5d3f39d287U, 0x3f66cf9a3f7c53c5U, 0x3f2e16133f2c2155U, 0x3f5d07e43f85027cU,
  0x3f169d2a3f439a3dU, 0x3f7480cd3f728c0fU, 0x3f0ae0b63f4783baU, 0x3f7e48833f6ea293U,
  0x3f1a86a63f300ad1U, 0x3f6ea2933f82135fU, 0x3f244e5d3f439a3dU, 0x3f66cf9a3f830dbeU,
  0x3f2e16133f35e90bU, 0x3f5d07e43f89e657U, 0x3f169d2a3f4d61f4U, 0x3f7480cd3f7c53c5U,
  0x3f0ae0b63f514b70U, 0x3f7e48833f786a49U, 0x3f1a86a63f3bc745U, 0x3f6ea2933f87f199U,
  0x3f244e5d3f4f56b2U, 0x3f66cf9a3f88ebf8U, 0x3f2e16133f41a57fU, 0x3f5d07e43f8fc491U,
  0x3f169d2a3f591e68U, 0x3f7480cd3f84081dU, 0x3f0ae0b63f5d07e4U, 0x3f7e48833f82135fU,
  0x3f1a86a63f458efcU, 0x3f6ea2933f8cd574U, 0x3f244e5d3f591e68U, 0x3f66cf9a3f8dcfd3U,
  0x3f2e16133f4b6d36U, 0x3f5d07e43f94a86cU, 0x3f169d2a3f62e61eU, 0x3f7480cd3f88ebf8U,
  0x3f0ae0b63f66cf9aU, 0x3f7e48833f86f73aU, 0x3f1a86a63f514b70U, 0x3f6ea2933f92b3aeU,
  0x3f2e1613bddb1326U, 0x3f7097513e1c7b64U, 0x3f37ddc9be244e5dU, 0x3f66cf9a3e53402eU,
  0x3f2064e0bd8cd574U, 0x3f7e48833deab917U, 0x3f169d2abd5b1326U, 0x3f85027c3dcb6d36U,
  0x3f26431bbe14a86cU, 0x3f7a5f073e3bc745U, 0x3f2e1613bd8cd574U, 0x3f7097513e439a3dU,
  0x3f37ddc9bdfa5f07U, 0x3f66cf9a3e7a5f07U, 0x3f2064e0bcfa5f07U, 0x3f7e48833e1c7b64U,
  0x3f169d2abc7a5f07U, 0x3f85027c3e0cd574U, 0x3f26431bbdcb6d36U, 0x3f7a5f073e6ab917U,
  0x3f2e1613bcbbc745U, 0x3f7097513e728c0fU, 0x3f37ddc9bd9c7b64U, 0x3f66cf9a3e94a86cU,
  0x3f2064e03c7a5f07U, 0x3f7e48833e4b6d36U, 0x3f169d2a3cfa5f07U, 0x3f85027c3e33f44dU,
  0x3f26431bbd7a5f07U, 0x3f7a5f073e88ebf8U, 0x3f2e16133c7a5f07U, 0x3f7097513e8cd574U,
  0x3f37ddc9bd1c7b64U, 0x3f66cf9a3ea837d9U, 0x3f2064e03d5b1326U, 0x3f7e48833e728c0fU,
  0x3f169d2a3d8cd574U, 0x3f85027c3e62e61eU, 0x3f26431bbcbbc745U, 0x3f7a5f073ea064e0U,
  0x3f2e16133d7a5f07U, 0x3f7097513ea44e5dU, 0x3f37ddc900000000U, 0x3f66cf9a3ebfb0c1U,
  0x3f2064e03dcb6d36U, 0x3f7e48833e90bef0U, 0x3f169d2a3deab917U, 0x3f85027c3e85027cU,
  0x3f26431b3cbbc745U, 0x3f7a5f073eb3f44dU, 0x3f2e16133dcb6d36U, 0x3f7097513eb7ddc9U,
  0x3f37ddc93d3bc745U, 0x3f66cf9a3ed3402eU, 0x3f2064e03e0cd574U, 0x3f7e48833ea44e5dU,
  0x3f169d2a3e1c7b64U, 0x3f85027c3e9c7b64U, 0x3f26431b3d7a5f07U, 0x3f7a5f073ecb6d36U,
